{
  "version": "1.0",
  "truncation": null,
  "padding": null,
  "added_tokens": [
    {
      "id": 0,
      "content": "<PAD>",
      "single_word": false,
      "lstrip": false,
      "rstrip": false,
      "normalized": false,
      "special": true
    },
    {
      "id": 1,
      "content": "<BOS>",
      "single_word": false,
      "lstrip": false,
      "rstrip": false,
      "normalized": false,
      "special": true
    },
    {
      "id": 2,
      "content": "<EOS>",
      "single_word": false,
      "lstrip": false,
      "rstrip": false,
      "normalized": false,
      "special": true
    }
  ],
  "normalizer": {
    "type": "NFKC"
  },
  "pre_tokenizer": {
    "type": "ByteLevel",
    "add_prefix_space": true,
    "trim_offsets": true,
    "use_regex": true
  },
  "post_processor": null,
  "decoder": {
    "type": "ByteLevel",
    "add_prefix_space": true,
    "trim_offsets": true,
    "use_regex": true
  },
  "model": {
    "type": "BPE",
    "dropout": null,
    "unk_token": null,
    "continuing_subword_prefix": null,
    "end_of_word_suffix": null,
    "fuse_unk": false,
    "byte_fallback": false,
    "ignore_merges": false,
    "vocab": {
      "<PAD>": 0,
      "<BOS>": 1,
      "<EOS>": 2,
      "!": 3,
      "\"": 4,
      "#": 5,
      "$": 6,
      "%": 7,
      "&": 8,
      "'": 9,
      "(": 10,
      ")": 11,
      "*": 12,
      "+": 13,
      ",": 14,
      "-": 15,
      ".": 16,
      "/": 17,
      "0": 18,
      "1": 19,
      "2": 20,
      "3": 21,
      "4": 22,
      "5": 23,
      "6": 24,
      "7": 25,
      "8": 26,
      "9": 27,
      ":": 28,
      ";": 29,
      "<": 30,
      "=": 31,
      ">": 32,
      "?": 33,
      "@": 34,
      "A": 35,
      "B": 36,
      "C": 37,
      "D": 38,
      "E": 39,
      "F": 40,
      "G": 41,
      "H": 42,
      "I": 43,
      "J": 44,
      "K": 45,
      "L": 46,
      "M": 47,
      "N": 48,
      "O": 49,
      "P": 50,
      "Q": 51,
      "R": 52,
      "S": 53,
      "T": 54,
      "U": 55,
      "V": 56,
      "W": 57,
      "X": 58,
      "Y": 59,
      "Z": 60,
      "[": 61,
      "\\": 62,
      "]": 63,
      "^": 64,
      "_": 65,
      "`": 66,
      "a": 67,
      "b": 68,
      "c": 69,
      "d": 70,
      "e": 71,
      "f": 72,
      "g": 73,
      "h": 74,
      "i": 75,
      "j": 76,
      "k": 77,
      "l": 78,
      "m": 79,
      "n": 80,
      "o": 81,
      "p": 82,
      "q": 83,
      "r": 84,
      "s": 85,
      "t": 86,
      "u": 87,
      "v": 88,
      "w": 89,
      "x": 90,
      "y": 91,
      "z": 92,
      "{": 93,
      "|": 94,
      "}": 95,
      "~": 96,
      "¡": 97,
      "¢": 98,
      "£": 99,
      "¤": 100,
      "¥": 101,
      "¦": 102,
      "§": 103,
      "¨": 104,
      "©": 105,
      "ª": 106,
      "«": 107,
      "¬": 108,
      "®": 109,
      "¯": 110,
      "°": 111,
      "±": 112,
      "²": 113,
      "³": 114,
      "´": 115,
      "µ": 116,
      "¶": 117,
      "·": 118,
      "¸": 119,
      "¹": 120,
      "º": 121,
      "»": 122,
      "¼": 123,
      "½": 124,
      "¾": 125,
      "¿": 126,
      "À": 127,
      "Á": 128,
      "Â": 129,
      "Ã": 130,
      "Ä": 131,
      "Å": 132,
      "Æ": 133,
      "Ç": 134,
      "È": 135,
      "É": 136,
      "Ê": 137,
      "Ë": 138,
      "Ì": 139,
      "Í": 140,
      "Î": 141,
      "Ï": 142,
      "Ð": 143,
      "Ñ": 144,
      "Ò": 145,
      "Ó": 146,
      "Ô": 147,
      "Õ": 148,
      "Ö": 149,
      "×": 150,
      "Ø": 151,
      "Ù": 152,
      "Ú": 153,
      "Û": 154,
      "Ü": 155,
      "Ý": 156,
      "Þ": 157,
      "ß": 158,
      "à": 159,
      "á": 160,
      "â": 161,
      "ã": 162,
      "ä": 163,
      "å": 164,
      "æ": 165,
      "ç": 166,
      "è": 167,
      "é": 168,
      "ê": 169,
      "ë": 170,
      "ì": 171,
      "í": 172,
      "î": 173,
      "ï": 174,
      "ð": 175,
      "ñ": 176,
      "ò": 177,
      "ó": 178,
      "ô": 179,
      "õ": 180,
      "ö": 181,
      "÷": 182,
      "ø": 183,
      "ù": 184,
      "ú": 185,
      "û": 186,
      "ü": 187,
      "ý": 188,
      "þ": 189,
      "ÿ": 190,
      "Ā": 191,
      "ā": 192,
      "Ă": 193,
      "ă": 194,
      "Ą": 195,
      "ą": 196,
      "Ć": 197,
      "ć": 198,
      "Ĉ": 199,
      "ĉ": 200,
      "Ċ": 201,
      "ċ": 202,
      "Č": 203,
      "č": 204,
      "Ď": 205,
      "ď": 206,
      "Đ": 207,
      "đ": 208,
      "Ē": 209,
      "ē": 210,
      "Ĕ": 211,
      "ĕ": 212,
      "Ė": 213,
      "ė": 214,
      "Ę": 215,
      "ę": 216,
      "Ě": 217,
      "ě": 218,
      "Ĝ": 219,
      "ĝ": 220,
      "Ğ": 221,
      "ğ": 222,
      "Ġ": 223,
      "ġ": 224,
      "Ģ": 225,
      "ģ": 226,
      "Ĥ": 227,
      "ĥ": 228,
      "Ħ": 229,
      "ħ": 230,
      "Ĩ": 231,
      "ĩ": 232,
      "Ī": 233,
      "ī": 234,
      "Ĭ": 235,
      "ĭ": 236,
      "Į": 237,
      "į": 238,
      "İ": 239,
      "ı": 240,
      "Ĳ": 241,
      "ĳ": 242,
      "Ĵ": 243,
      "ĵ": 244,
      "Ķ": 245,
      "ķ": 246,
      "ĸ": 247,
      "Ĺ": 248,
      "ĺ": 249,
      "Ļ": 250,
      "ļ": 251,
      "Ľ": 252,
      "ľ": 253,
      "Ŀ": 254,
      "ŀ": 255,
      "Ł": 256,
      "ł": 257,
      "Ń": 258,
      "th": 259,
      "Ġth": 260,
      "Ġthe": 261,
      "Ġa": 262,
      "nd": 263,
      "Ġs": 264,
      "Ġh": 265,
      "Ġo": 266,
      "in": 267,
      "Ġw": 268,
      "er": 269,
      "Ġand": 270,
      "Ġof": 271,
      "re": 272,
      "to": 273,
      "Ġb": 274,
      "ou": 275,
      "ll": 276,
      "Ġm": 277,
      "is": 278,
      "en": 279,
      "Ġf": 280,
      "at": 281,
      "or": 282,
      "es": 283,
      "ed": 284,
      "Ġc": 285,
      "on": 286,
      "ĠA": 287,
      "ha": 288,
      "Ġu": 289,
      "Ġd": 290,
      "ing": 291,
      "ea": 292,
      "Ġin": 293,
      "Ġto": 294,
      "it": 295,
      "Ġp": 296,
      "Ġn": 297,
      "an": 298,
      "ĠI": 299,
      "ĠAnd": 300,
      "Ġbe": 301,
      "om": 302,
      "Ġthat": 303,
      "Ġwi": 304,
      "Ġha": 305,
      "Ġl": 306,
      "Ġsha": 307,
      "Ġwh": 308,
      "se": 309,
      "st": 310,
      "Ġy": 311,
      "Ġg": 312,
      "im": 313,
      "Ġhe": 314,
      "ay": 315,
      "id": 316,
      "Ġun": 317,
      "ve": 318,
      "Ġshall": 319,
      "ut": 320,
      "ĠL": 321,
      "ld": 322,
      "Ġno": 323,
      "Ġt": 324,
      "Ġfor": 325,
      "Ġunto": 326,
      "ch": 327,
      "as": 328,
      "Ġhis": 329,
      "le": 330,
      "gh": 331,
      "Ġsa": 332,
      "ar": 333,
      "ĠT": 334,
      "od": 335,
      "ir": 336,
      "am": 337,
      "Ġhim": 338,
      "Ġis": 339,
      "Ġe": 340,
      "OR": 341,
      "ORD": 342,
      "el": 343,
      "Ġthey": 344,
      "ow": 345,
      "ther": 346,
      "and": 347,
      "ver": 348,
      "ce": 349,
      "ĠTh": 350,
      "ear": 351,
      "Ġthem": 352,
      "ĠLORD": 353,
      "Ġnot": 354,
      "Ġwith": 355,
      "ra": 356,
      "ght": 357,
      "ri": 358,
      "ĠJ": 359,
      "ent": 360,
      "ĠG": 361,
      "Ġit": 362,
      "Ġk": 363,
      "Ġthou": 364,
      "et": 365,
      "ere": 366,
      "Ġall": 367,
      "Ġup": 368,
      "ore": 369,
      "Ġyou": 370,
      "ke": 371,
      "il": 372,
      "the": 373,
      "ur": 374,
      "ich": 375,
      "ĠS": 376,
      "Ġwas": 377,
      "ord": 378,
      "Ġme": 379,
      "Ġthy": 380,
      "Ġre": 381,
      "ĠB": 382,
      "ain": 383,
      "Ġan": 384,
      "ion": 385,
      "ro": 386,
      "Ġmy": 387,
      "est": 388,
      "ven": 389,
      "Ġas": 390,
      "Ġon": 391,
      "Ġwhich": 392,
      "ĠGod": 393,
      "Ġsaid": 394,
      "ah": 395,
      "Ġthere": 396,
      "rom": 397,
      "us": 398,
      "eth": 399,
      "Ġwill": 400,
      "Ġhave": 401,
      "Ġtheir": 402,
      "Ġcom": 403,
      "Ġye": 404,
      "Ġthee": 405,
      "ad": 406,
      "fore": 407,
      "ess": 408,
      "Ġman": 409,
      "Ġfrom": 410,
      "ame": 411,
      "au": 412,
      "Ġsh": 413,
      "Ġson": 414,
      "lt": 415,
      "Ġgo": 416,
      "if": 417,
      "Ġking": 418,
      "ĠH": 419,
      "Ġse": 420,
      "ake": 421,
      "Ġfa": 422,
      "ho": 423,
      "ĠM": 424,
      "hi": 425,
      "ren": 426,
      "ĠIs": 427,
      "Ġare": 428,
      "ter": 429,
      "Ġout": 430,
      "Ġsp": 431,
      "ine": 432,
      "ly": 433,
      "Ġwere": 434,
      "rael": 435,
      "of": 436,
      "al": 437,
      "op": 438,
      "Ġupon": 439,
      "Ġst": 440,
      "ers": 441,
      "Ġday": 442,
      "ight": 443,
      "ith": 444,
      "rou": 445,
      "Ġby": 446,
      "Ġwhen": 447,
      "so": 448,
      "10": 449,
      "our": 450,
      "11": 451,
      "ab": 452,
      "ation": 453,
      "ĠIsrael": 454,
      "Ġbut": 455,
      "gain": 456,
      "Ġthis": 457,
      "ĠE": 458,
      "ĠW": 459,
      "Ġsay": 460,
      "ĠThe": 461,
      "ive": 462,
      "ck": 463,
      "ĠF": 464,
      "pt": 465,
      "eop": 466,
      "ud": 467,
      "eople": 468,
      "Ġhear": 469,
      "ouse": 470,
      "Ġhath": 471,
      "ant": 472,
      "Ġchi": 473,
      "Ġwe": 474,
      "Ġagain": 475,
      "Ġdo": 476,
      "Ġher": 477,
      "12": 478,
      "13": 479,
      "sel": 480,
      "Ġal": 481,
      "ru": 482,
      "all": 483,
      "em": 484,
      "14": 485,
      "ings": 486,
      "Ġcame": 487,
      "ong": 488,
      "Ġhad": 489,
      "Ġv": 490,
      "Ġpeople": 491,
      "Ġhouse": 492,
      "ok": 493,
      "Ġoff": 494,
      "Ġinto": 495,
      "Ġhand": 496,
      "ph": 497,
      "urn": 498,
      "ot": 499,
      "ness": 500,
      "Ġyour": 501,
      "ldren": 502,
      "ge": 503,
      "ĠO": 504,
      "15": 505,
      "os": 506,
      "'s": 507,
      "one": 508,
      "Ġcome": 509,
      "Ġone": 510,
      "Ġam": 511,
      "ĠFor": 512,
      "16": 513,
      "ie": 514,
      "red": 515,
      "ĠD": 516,
      "ĠN": 517,
      "ity": 518,
      "la": 519,
      "Ġshe": 520,
      "ep": 521,
      "Ġland": 522,
      "Ġchildren": 523,
      "ĠP": 524,
      "Ġbefore": 525,
      "Ġever": 526,
      "own": 527,
      "18": 528,
      "Ġmen": 529,
      "Ġhea": 530,
      "ould": 531,
      "Ġalso": 532,
      "ause": 533,
      "ill": 534,
      "Ġab": 535,
      "ĠBut": 536,
      "ass": 537,
      "19": 538,
      "17": 539,
      "ĠC": 540,
      "Ġkn": 541,
      "Ġaf": 542,
      "Ġshalt": 543,
      "hold": 544,
      "Ġat": 545,
      "be": 546,
      "Ġagainst": 547,
      "ast": 548,
      "20": 549,
      "ade": 550,
      "out": 551,
      "21": 552,
      "Ġus": 553,
      "22": 554,
      "ies": 555,
      "un": 556,
      "ard": 557,
      "Ġso": 558,
      "ĠWh": 559,
      "Ġne": 560,
      "iah": 561,
      "av": 562,
      "ise": 563,
      "lo": 564,
      "ac": 565,
      "Ġear": 566,
      "ous": 567,
      "Ġtw": 568,
      "ĠThen": 569,
      "Ġwent": 570,
      "erv": 571,
      "reat": 572,
      "oun": 573,
      "Ġwho": 574,
      "Ġmade": 575,
      "Ġj": 576,
      "Ġfather": 577,
      "Ġwor": 578,
      "23": 579,
      "res": 580,
      "ice": 581,
      "Ġcon": 582,
      "Ġeven": 583,
      "Ġsaying": 584,
      "ct": 585,
      "Ġlo": 586,
      "ither": 587,
      "Ġri": 588,
      "Ġho": 589,
      "Ġli": 590,
      "cause": 591,
      "Ġoffer": 592,
      "Ġbre": 593,
      "ment": 594,
      "ish": 595,
      "Ġor": 596,
      "24": 597,
      "Ġsaith": 598,
      "ell": 599,
      "Ġover": 600,
      "Ġword": 601,
      "ol": 602,
      "les": 603,
      "Ġpro": 604,
      "Ġar": 605,
      "ak": 606,
      "Ġour": 607,
      "way": 608,
      "ist": 609,
      "Ġlet": 610,
      "Ġevery": 611,
      "ide": 612,
      "Ġafter": 613,
      "Ġbr": 614,
      "Ġsu": 615,
      "Ġhast": 616,
      "ved": 617,
      "25": 618,
      "Ġif": 619,
      "Ġmay": 620,
      "Ġserv": 621,
      "Ġmake": 622,
      "Ġpr": 623,
      "Ġthings": 624,
      "lea": 625,
      "avid": 626,
      "ves": 627,
      "Ġgreat": 628,
      "Ġdid": 629,
      "ĠHe": 630,
      "Ġsons": 631,
      "Ġdown": 632,
      "Ġknow": 633,
      "26": 634,
      "Ġcomm": 635,
      "ount": 636,
      "orn": 637,
      "ĠBe": 638,
      "ale": 639,
      "pp": 640,
      "he": 641,
      "ĠJes": 642,
      "ĠLord": 643,
      "ĠDavid": 644,
      "um": 645,
      "Ġde": 646,
      "sha": 647,
      "rought": 648,
      "Ġpass": 649,
      "ered": 650,
      "Ġpla": 651,
      "ind": 652,
      "Ġearth": 653,
      "ces": 654,
      "Ġthese": 655,
      "self": 656,
      "27": 657,
      "riest": 658,
      "qu": 659,
      "led": 660,
      "ath": 661,
      "ound": 662,
      "cc": 663,
      "itt": 664,
      "ites": 665,
      "ĠJesus": 666,
      "und": 667,
      "Ġbecause": 668,
      "ĠJer": 669,
      "Ġthen": 670,
      "Ġname": 671,
      "Ġput": 672,
      "Ġsee": 673,
      "28": 674,
      "Ġla": 675,
      "ward": 676,
      "ig": 677,
      "Ġheart": 678,
      "ather": 679,
      "Ġservant": 680,
      "ose": 681,
      "Ġany": 682,
      "ry": 683,
      "Ġsin": 684,
      "oses": 685,
      "Ġpriest": 686,
      "ree": 687,
      "for": 688,
      "ul": 689,
      "Ġyear": 690,
      "ĠJud": 691,
      "are": 692,
      "ire": 693,
      "Ġnor": 694,
      "Ġaway": 695,
      "Ġco": 696,
      "ime": 697,
      "Ġthine": 698,
      "Ġgive": 699,
      "Ġway": 700,
      "Ġdea": 701,
      "Ġforth": 702,
      "Ġamong": 703,
      "Ġ3": 704,
      "Ġsw": 705,
      "other": 706,
      "igh": 707,
      "alem": 708,
      "Ġbrought": 709,
      "usalem": 710,
      "ĠJe": 711,
      "Ġacc": 712,
      "Ġshould": 713,
      "Ġdays": 714,
      "ĠMoses": 715,
      "ĠZ": 716,
      "Ġcity": 717,
      "dom": 718,
      "Ġcall": 719,
      "29": 720,
      "art": 721,
      "ording": 722,
      "li": 723,
      "Ġsto": 724,
      "Ġbo": 725,
      "Ġright": 726,
      "Ġthereof": 727,
      "Ġgood": 728,
      "ate": 729,
      "Ġeat": 730,
      "erefore": 731,
      "Ġtwo": 732,
      "Ġcommand": 733,
      "ne": 734,
      "Ġr": 735,
      "sw": 736,
      "vil": 737,
      "aught": 738,
      "that": 739,
      "ĠR": 740,
      "Ġwat": 741,
      "ĠAb": 742,
      "Ġsou": 743,
      "ĠJudah": 744,
      "ome": 745,
      "gy": 746,
      "Ġmu": 747,
      "Ġbring": 748,
      "ub": 749,
      "Ġmight": 750,
      "Ġtake": 751,
      "ite": 752,
      "gypt": 753,
      "wh": 754,
      "east": 755,
      "nder": 756,
      "Ġbu": 757,
      "Ġtherefore": 758,
      "Ġtook": 759,
      "oice": 760,
      "Ġwhat": 761,
      "iver": 762,
      "Ġcha": 763,
      "ĠJerusalem": 764,
      "me": 765,
      "wn": 766,
      "Ġwhom": 767,
      "Ġwhere": 768,
      "Ġset": 769,
      "ance": 770,
      "Ġneither": 771,
      "Ġlike": 772,
      "shall": 773,
      "ure": 774,
      "Ġnow": 775,
      "Ġwork": 776,
      "Ġbehold": 777,
      "ef": 778,
      "ĠAs": 779,
      "Ġdw": 780,
      "ations": 781,
      "irst": 782,
      "ever": 783,
      "30": 784,
      "fe": 785,
      "Ġlif": 786,
      "ied": 787,
      "Ġjud": 788,
      "Ġheaven": 789,
      "with": 790,
      "ave": 791,
      "ern": 792,
      "Ġmore": 793,
      "eak": 794,
      "ĠEgypt": 795,
      "Ġaccording": 796,
      "Ġsent": 797,
      "rough": 798,
      "selves": 799,
      "ob": 800,
      "31": 801,
      "Ġfo": 802,
      "Ġoffering": 803,
      "Ġen": 804,
      "Ġgl": 805,
      "Ġplace": 806,
      "eliver": 807,
      "ign": 808,
      "undred": 809,
      "ĠNow": 810,
      "Ġburn": 811,
      "ence": 812,
      "ty": 813,
      "Ġbro": 814,
      "ĠThou": 815,
      "less": 816,
      "ĠSo": 817,
      "Ġheard": 818,
      "ip": 819,
      "hr": 820,
      "aul": 821,
      "ran": 822,
      "Ġro": 823,
      "Ġey": 824,
      "ach": 825,
      "ic": 826,
      "apt": 827,
      "eous": 828,
      "Ġansw": 829,
      "Ġtime": 830,
      "Ġtru": 831,
      "her": 832,
      "ng": 833,
      "ĊĊ": 834,
      "Ġrem": 835,
      "ken": 836,
      "Ġmine": 837,
      "ber": 838,
      "Ġcalled": 839,
      "irit": 840,
      "Ġbeg": 841,
      "32": 842,
      "Ġabout": 843,
      "Ġke": 844,
      "cked": 845,
      "Ġown": 846,
      "ried": 847,
      "Ġthan": 848,
      "Ġper": 849,
      "Ġevil": 850,
      "hrist": 851,
      "Ġsm": 852,
      "Ġunder": 853,
      "Ġspake": 854,
      "Ġproph": 855,
      "thren": 856,
      "Ġwom": 857,
      "Ġdes": 858,
      "Ġhundred": 859,
      "Ġlaw": 860,
      "ted": 861,
      "Ġsaw": 862,
      "ĠBehold": 863,
      "ink": 864,
      "Ġfirst": 865,
      "ities": 866,
      "Ġturn": 867,
      "33": 868,
      "iven": 869,
      "ue": 870,
      "Ġpre": 871,
      "Ġang": 872,
      "them": 873,
      "Ġyet": 874,
      "Ġthrough": 875,
      "Ġdis": 876,
      "Ġex": 877,
      "Ġseven": 878,
      "Ġdeliver": 879,
      "unto": 880,
      "ĠAm": 881,
      "lood": 882,
      "Ġdone": 883,
      "Ġsea": 884,
      "ĠY": 885,
      "ĠChrist": 886,
      "ag": 887,
      "Ġmount": 888,
      "Ġfire": 889,
      "round": 890,
      "sand": 891,
      "gether": 892,
      "Ġwords": 893,
      "Ġdaught": 894,
      "Ġthousand": 895,
      "him": 896,
      "ble": 897,
      "ham": 898,
      "not": 899,
      "sp": 900,
      "Ġmany": 901,
      "Ġyears": 902,
      "cri": 903,
      "Ġthing": 904,
      "Ġjudg": 905,
      "Ġbrethren": 906,
      "Ġother": 907,
      "Ġsoul": 908,
      "34": 909,
      "Ġfathers": 910,
      "ments": 911,
      "een": 912,
      "Ġcast": 913,
      "Ġeyes": 914,
      "ving": 915,
      "Ġspeak": 916,
      "ĠK": 917,
      "lean": 918,
      "Ġglor": 919,
      "Ġpray": 920,
      "turn": 921,
      "Ġ4": 922,
      "Ġdest": 923,
      "ead": 924,
      "ĠIf": 925,
      "Ġhimself": 926,
      "ets": 927,
      "erc": 928,
      "oh": 929,
      "Ġfour": 930,
      "his": 931,
      "sed": 932,
      "roy": 933,
      "outh": 934,
      "eb": 935,
      "Ġvoice": 936,
      "Ġgiven": 937,
      "ield": 938,
      "Ġrighteous": 939,
      "Ġdwell": 940,
      "ev": 941,
      "alk": 942,
      "rink": 943,
      "Ġfound": 944,
      "Ġhost": 945,
      "Ġgold": 946,
      "hab": 947,
      "Ġanswered": 948,
      "row": 949,
      "Ġend": 950,
      "tain": 951,
      "Ġwould": 952,
      "over": 953,
      "Ġhead": 954,
      "Ġgave": 955,
      "Ġtab": 956,
      "ull": 957,
      "ful": 958,
      "Ġra": 959,
      "Ġwicked": 960,
      "Ġholy": 961,
      "Ġcapt": 962,
      "Ġtogether": 963,
      "lesh": 964,
      "ust": 965,
      "Ġthree": 966,
      "ltar": 967,
      "Ġart": 968,
      "oin": 969,
      "eace": 970,
      "aken": 971,
      "up": 972,
      "Ġhands": 973,
      "oth": 974,
      "ĠThus": 975,
      "36": 976,
      "ile": 977,
      "Ġblood": 978,
      "Ġ1": 979,
      "Ġfe": 980,
      "ĠLet": 981,
      "Ġlife": 982,
      "Ġservants": 983,
      "Ġthose": 984,
      "Ġhigh": 985,
      "att": 986,
      "ĠTherefore": 987,
      "Ġkeep": 988,
      "they": 989,
      "Ġcan": 990,
      "Ġapp": 991,
      "Ġsl": 992,
      "Ġmouth": 993,
      "Ġanother": 994,
      "35": 995,
      "gth": 996,
      "Ġcities": 997,
      "Ġgather": 998,
      "Ġsword": 999,
      "Ġaltar": 1000,
      "ĠThey": 1001,
      "iv": 1002,
      "Ġside": 1003,
      "Ġreturn": 1004,
      "ĠSaul": 1005,
      "Ġbread": 1006,
      "hil": 1007,
      "Ġdestroy": 1008,
      "Ġflesh": 1009,
      "LORD": 1010,
      "Ġhow": 1011,
      "Ġwr": 1012,
      "ai": 1013,
      "ost": 1014,
      "soever": 1015,
      "Ġcommanded": 1016,
      "ild": 1017,
      "Ġwife": 1018,
      "Ġtre": 1019,
      "Ġtri": 1020,
      "ily": 1021,
      "Ġmid": 1022,
      "37": 1023,
      "Ġru": 1024,
      "Ġface": 1025,
      "Ġshew": 1026,
      "Ġmerc": 1027,
      "Ġsi": 1028,
      "Ġbet": 1029,
      "there": 1030,
      "hu": 1031,
      "acob": 1032,
      "reg": 1033,
      "Ġspirit": 1034,
      "ond": 1035,
      "til": 1036,
      "Ġfam": 1037,
      "ĠWho": 1038,
      "ĠPha": 1039,
      "Ġwithout": 1040,
      "Ġthir": 1041,
      "enty": 1042,
      "ongreg": 1043,
      "Ġwater": 1044,
      "thy": 1045,
      "ised": 1046,
      "Ġpl": 1047,
      "Ġglory": 1048,
      "ongregation": 1049,
      "aid": 1050,
      "Ġ2": 1051,
      "Ġgra": 1052,
      "epart": 1053,
      "Ġprin": 1054,
      "Ġpriests": 1055,
      "com": 1056,
      "ek": 1057,
      "Ġpeace": 1058,
      "ains": 1059,
      "Ġkingdom": 1060,
      "ernac": 1061,
      "Ġbrother": 1062,
      "ff": 1063,
      "ĠJacob": 1064,
      "Ġdrink": 1065,
      "els": 1066,
      "pro": 1067,
      "stand": 1068,
      "aron": 1069,
      "pen": 1070,
      "which": 1071,
      "Ġold": 1072,
      "end": 1073,
      "ner": 1074,
      "Ġcause": 1075,
      "Ġenem": 1076,
      "oab": 1077,
      "ĠIn": 1078,
      "ĠWhen": 1079,
      "uch": 1080,
      "Ġfear": 1081,
      "Ġlove": 1082,
      "itten": 1083,
      "Ġent": 1084,
      "ese": 1085,
      "Ġburnt": 1086,
      "Ġmidst": 1087,
      "Ġfall": 1088,
      "Ġdeath": 1089,
      "ĠWhat": 1090,
      "ans": 1091,
      "ĠLev": 1092,
      "ia": 1093,
      "ts": 1094,
      "Ġbless": 1095,
      "Ġdead": 1096,
      "Ġthemselves": 1097,
      "iqu": 1098,
      "ress": 1099,
      "az": 1100,
      "ĠAaron": 1101,
      "ction": 1102,
      "ister": 1103,
      "Ġrece": 1104,
      "bs": 1105,
      "Ġwoman": 1106,
      "ernacle": 1107,
      "lon": 1108,
      "Ġbel": 1109,
      "ower": 1110,
      "ruit": 1111,
      "Ġmult": 1112,
      "38": 1113,
      "Ġsle": 1114,
      "attle": 1115,
      "Ġpart": 1116,
      "Ġboth": 1117,
      "40": 1118,
      "thou": 1119,
      "Ġfive": 1120,
      "Ġlef": 1121,
      "Ġstand": 1122,
      "Ġdisc": 1123,
      "Ġleft": 1124,
      "Ġsil": 1125,
      "Ġwalk": 1126,
      "rength": 1127,
      "illed": 1128,
      "Ġfield": 1129,
      "right": 1130,
      "Ġyoung": 1131,
      "Ġfaith": 1132,
      "ants": 1133,
      "Ġlive": 1134,
      "Ġuntil": 1135,
      "Ġlight": 1136,
      "oss": 1137,
      "ove": 1138,
      "erve": 1139,
      "ark": 1140,
      "ĠThis": 1141,
      "ret": 1142,
      "ors": 1143,
      "Ġten": 1144,
      "ished": 1145,
      "Ġcar": 1146,
      "Ġdepart": 1147,
      "very": 1148,
      "Ġstood": 1149,
      "Ġpres": 1150,
      "Ġcut": 1151,
      "Ġreign": 1152,
      "Ġnone": 1153,
      "ĠThat": 1154,
      "herit": 1155,
      "Ġbeast": 1156,
      "llow": 1157,
      "Ġcount": 1158,
      "onth": 1159,
      "Ġgod": 1160,
      "Ġunc": 1161,
      "ple": 1162,
      "Ġsame": 1163,
      "Ġtoward": 1164,
      "Ġtaken": 1165,
      "Ġsight": 1166,
      "han": 1167,
      "Ġbeen": 1168,
      "keth": 1169,
      "omon": 1170,
      "olomon": 1171,
      "ec": 1172,
      "erness": 1173,
      "Ġfell": 1174,
      "Ġrest": 1175,
      "Ġ6": 1176,
      "ines": 1177,
      "Ġinc": 1178,
      "Ġdie": 1179,
      "OD": 1180,
      "ons": 1181,
      "Ġnations": 1182,
      "Ġlook": 1183,
      "Ġwar": 1184,
      "39": 1185,
      "ylon": 1186,
      "Ġmonth": 1187,
      "Ġkings": 1188,
      "abylon": 1189,
      "venant": 1190,
      "ws": 1191,
      "Ġcomp": 1192,
      "Ġround": 1193,
      "Ġdaughter": 1194,
      "yri": 1195,
      "atter": 1196,
      "loth": 1197,
      "habit": 1198,
      "Ġpo": 1199,
      "Ġnight": 1200,
      "ĠSam": 1201,
      "Ġmother": 1202,
      "Ġcongregation": 1203,
      "Ġwild": 1204,
      "hilist": 1205,
      "den": 1206,
      "Ġsc": 1207,
      "thee": 1208,
      "Ġiniqu": 1209,
      "Ġsacri": 1210,
      "Ġcont": 1211,
      "Ġcons": 1212,
      "Ġsacrif": 1213,
      "age": 1214,
      "rong": 1215,
      "Ġtem": 1216,
      "oken": 1217,
      "Ġbelie": 1218,
      "41": 1219,
      "Is": 1220,
      "Ġ7": 1221,
      "ĠSolomon": 1222,
      "man": 1223,
      "Ġim": 1224,
      "Ġhar": 1225,
      "ĠGOD": 1226,
      "Ġnum": 1227,
      "anct": 1228,
      "ived": 1229,
      "Ġsilver": 1230,
      "itud": 1231,
      "Ġstrength": 1232,
      "Ġtabernacle": 1233,
      "their": 1234,
      "ort": 1235,
      "raoh": 1236,
      "read": 1237,
      "Ġbl": 1238,
      "Ġthus": 1239,
      "Ġ5": 1240,
      "Ġmeat": 1241,
      "mb": 1242,
      "Ġopen": 1243,
      "ĠYe": 1244,
      "Ġhosts": 1245,
      "men": 1246,
      "Ġinherit": 1247,
      "Ġtwenty": 1248,
      "Ġarm": 1249,
      "ions": 1250,
      "Ġwaters": 1251,
      "Ġturned": 1252,
      "ossess": 1253,
      "And": 1254,
      "ĠSon": 1255,
      "Ġchief": 1256,
      "Ġrej": 1257,
      "ary": 1258,
      "ĠSh": 1259,
      "Ġworld": 1260,
      "Ġlord": 1261,
      "cks": 1262,
      "Ġlaid": 1263,
      "ĠRe": 1264,
      "Ġmuch": 1265,
      "ning": 1266,
      "ĠU": 1267,
      "elt": 1268,
      "ger": 1269,
      "ned": 1270,
      "ĠJos": 1271,
      "ĠBabylon": 1272,
      "ap": 1273,
      "su": 1274,
      "Ġseed": 1275,
      "Ġcovenant": 1276,
      "ged": 1277,
      "Ġqu": 1278,
      "Ġfruit": 1279,
      "Ġtold": 1280,
      "Ġspoken": 1281,
      "Ġstran": 1282,
      "Ġwhose": 1283,
      "Ġsix": 1284,
      "had": 1285,
      "amp": 1286,
      "Ġseen": 1287,
      "Ġstrong": 1288,
      "Ġcometh": 1289,
      "zar": 1290,
      "thing": 1291,
      "Ġbeing": 1292,
      "ches": 1293,
      "ars": 1294,
      "ubit": 1295,
      "Ġplea": 1296,
      "Ġdelivered": 1297,
      "Ġjudgment": 1298,
      "ĠPharaoh": 1299,
      "Ġwa": 1300,
      "Ġfull": 1301,
      "Ġgate": 1302,
      "itude": 1303,
      "come": 1304,
      "ched": 1305,
      "ĠGo": 1306,
      "ified": 1307,
      "Ġmighty": 1308,
      "Ġlay": 1309,
      "hilistines": 1310,
      "Ġsec": 1311,
      "Ġconc": 1312,
      "Ġbuild": 1313,
      "Israel": 1314,
      "hath": 1315,
      "ĠWherefore": 1316,
      "ertain": 1317,
      "raise": 1318,
      "raham": 1319,
      "ĠFather": 1320,
      "Ġwell": 1321,
      "oseph": 1322,
      "hua": 1323,
      "Ġwilderness": 1324,
      "Ġfif": 1325,
      "Ġmercy": 1326,
      "from": 1327,
      "ins": 1328,
      "Ġbear": 1329,
      "Ġpower": 1330,
      "ittle": 1331,
      "iples": 1332,
      "42": 1333,
      "ew": 1334,
      "Ġad": 1335,
      "Ġsat": 1336,
      "Ġba": 1337,
      "Ġbow": 1338,
      "ĠIt": 1339,
      "Ġrighteousness": 1340,
      "will": 1341,
      "oud": 1342,
      "Ġenemies": 1343,
      "Ġiniquity": 1344,
      "Ġlea": 1345,
      "ĠEli": 1346,
      "ote": 1347,
      "erning": 1348,
      "Ġfl": 1349,
      "Ġinhabit": 1350,
      "Ġlong": 1351,
      "Ġgathered": 1352,
      "Ġwritten": 1353,
      "Ġprinces": 1354,
      "Ġvery": 1355,
      "ener": 1356,
      "Ġseek": 1357,
      "ĠLevites": 1358,
      "ĠSp": 1359,
      "Ġcl": 1360,
      "Ġfeet": 1361,
      "Ġ9": 1362,
      "Ġwall": 1363,
      "ĠMy": 1364,
      "Ġcover": 1365,
      "God": 1366,
      "Ġwine": 1367,
      "Ġwise": 1368,
      "Ġmea": 1369,
      "ĠBen": 1370,
      "isdom": 1371,
      "Ġwhe": 1372,
      "ĠAr": 1373,
      "have": 1374,
      "Ġwhole": 1375,
      "Ġriver": 1376,
      "ĠJews": 1377,
      "44": 1378,
      "ween": 1379,
      "orrow": 1380,
      "orning": 1381,
      "ail": 1382,
      "ood": 1383,
      "Ġsanct": 1384,
      "Ġsure": 1385,
      "omin": 1386,
      "Ġsend": 1387,
      "Ġsub": 1388,
      "sh": 1389,
      "each": 1390,
      "Ġpur": 1391,
      "ĠAbraham": 1392,
      "Ġlittle": 1393,
      "ash": 1394,
      "ĠJoseph": 1395,
      "bes": 1396,
      "Ġsuch": 1397,
      "ointed": 1398,
      "Ġsome": 1399,
      "Ġcubit": 1400,
      "Ġyea": 1401,
      "Ġfollow": 1402,
      "ĠHow": 1403,
      "ious": 1404,
      "aying": 1405,
      "ilt": 1406,
      "ick": 1407,
      "shi": 1408,
      "ĠJeho": 1409,
      "Ġmultitude": 1410,
      "Ġcur": 1411,
      "Ġdisciples": 1412,
      "Ġgods": 1413,
      "ib": 1414,
      "Ġmo": 1415,
      "Ġcho": 1416,
      "Ġprophet": 1417,
      "now": 1418,
      "Ġofferings": 1419,
      "Ġtribe": 1420,
      "mon": 1421,
      "Ġpossess": 1422,
      "ĠBeth": 1423,
      "iel": 1424,
      "oy": 1425,
      "ron": 1426,
      "Ġdaughters": 1427,
      "esc": 1428,
      "Ġforg": 1429,
      "cept": 1430,
      "Ġkind": 1431,
      "Ġworks": 1432,
      "aiah": 1433,
      "serv": 1434,
      "ify": 1435,
      "Ġdwelt": 1436,
      "43": 1437,
      "again": 1438,
      "Ġmorning": 1439,
      "ĠThese": 1440,
      "Ġtruth": 1441,
      "Ġsmote": 1442,
      "Ġanger": 1443,
      "king": 1444,
      "ates": 1445,
      "ledge": 1446,
      "Ġbegat": 1447,
      "Ġprophets": 1448,
      "ps": 1449,
      "rath": 1450,
      "off": 1451,
      "ĠEph": 1452,
      "ots": 1453,
      "Ġhold": 1454,
      "oil": 1455,
      "Ġ8": 1456,
      "ought": 1457,
      "48": 1458,
      "sg": 1459,
      "ĠThere": 1460,
      "Ġtherein": 1461,
      "ĠEl": 1462,
      "oney": 1463,
      "Ġunderstand": 1464,
      "uel": 1465,
      "Ġbes": 1466,
      "Ġbetween": 1467,
      "Ġ10": 1468,
      "Ġsave": 1469,
      "ĠShe": 1470,
      "Ġask": 1471,
      "Ġark": 1472,
      "Ġwilt": 1473,
      "ĠPhilistines": 1474,
      "Ġinheritance": 1475,
      "Ġclean": 1476,
      "ĠJoshua": 1477,
      "was": 1478,
      "Ġ12": 1479,
      "ute": 1480,
      "asse": 1481,
      "Ġabove": 1482,
      "Ġ(": 1483,
      "Ġpit": 1484,
      "Ġgone": 1485,
      "Ġnothing": 1486,
      "Ġunclean": 1487,
      "Ġcertain": 1488,
      "chi": 1489,
      "Ġonly": 1490,
      "ĠMan": 1491,
      "nes": 1492,
      "per": 1493,
      "Ġ11": 1494,
      "then": 1495,
      "Ġserve": 1496,
      "Ġwisdom": 1497,
      "raim": 1498,
      "Ġrep": 1499,
      "people": 1500,
      "son": 1501,
      "Ġnear": 1502,
      "Ġgar": 1503,
      "Ġeld": 1504,
      "eter": 1505,
      "Ġcloth": 1506,
      "ĠWe": 1507,
      "Ġremem": 1508,
      "Ġwit": 1509,
      "ĠAl": 1510,
      "ĠAll": 1511,
      "Ġut": 1512,
      "Ġflo": 1513,
      "Ġcry": 1514,
      "raid": 1515,
      "ordan": 1516,
      "Ġknown": 1517,
      "aster": 1518,
      "Ġdev": 1519,
      "Ġchar": 1520,
      "Ġpoor": 1521,
      "Ġconcerning": 1522,
      "came": 1523,
      "ians": 1524,
      "46": 1525,
      "aan": 1526,
      "ey": 1527,
      "iz": 1528,
      "sto": 1529,
      "said": 1530,
      "Ġoil": 1531,
      "Ġplaces": 1532,
      "athan": 1533,
      "Ġdre": 1534,
      "Ġlest": 1535,
      "imon": 1536,
      "Ġdeparted": 1537,
      "yria": 1538,
      "esh": 1539,
      "Ġcour": 1540,
      "Ġthyself": 1541,
      "Ġchild": 1542,
      "Ġconf": 1543,
      "ering": 1544,
      "Ġbod": 1545,
      "ĠBecause": 1546,
      "Ġdec": 1547,
      "reth": 1548,
      "Ġlam": 1549,
      "ĠSha": 1550,
      "Ġangel": 1551,
      "upon": 1552,
      "fter": 1553,
      "gers": 1554,
      "ĠTo": 1555,
      "Ġways": 1556,
      "ekiah": 1557,
      "jam": 1558,
      "my": 1559,
      "Ġdied": 1560,
      "Ġjoy": 1561,
      "Ġslew": 1562,
      "children": 1563,
      "bb": 1564,
      "elve": 1565,
      "Ġsacrifice": 1566,
      "45": 1567,
      "bered": 1568,
      "oured": 1569,
      "Ġtree": 1570,
      "ĠMoab": 1571,
      "Ġcubits": 1572,
      "Ġdiv": 1573,
      "able": 1574,
      "ages": 1575,
      "Ġcoun": 1576,
      "Ġtell": 1577,
      "band": 1578,
      "con": 1579,
      "house": 1580,
      "Ġwrath": 1581,
      "Ġcried": 1582,
      "Ġwind": 1583,
      "Ġgener": 1584,
      "ilies": 1585,
      "ase": 1586,
      "hear": 1587,
      "Ġbord": 1588,
      "Ġbook": 1589,
      "Ġreceive": 1590,
      "ray": 1591,
      "Ġbare": 1592,
      "Ġfind": 1593,
      "eal": 1594,
      "Ġpraise": 1595,
      "Ġspoil": 1596,
      "Ġaff": 1597,
      "Ġthr": 1598,
      "Ġmin": 1599,
      "Ġhearken": 1600,
      "Ġfool": 1601,
      "Ġtemple": 1602,
      "Ġsheep": 1603,
      "Ġsurely": 1604,
      "against": 1605,
      "Ġutter": 1606,
      "Ġtrou": 1607,
      "ĠCan": 1608,
      "before": 1609,
      "ransg": 1610,
      "Ġdark": 1611,
      "Ġdoth": 1612,
      "Ġdoor": 1613,
      "Ġthird": 1614,
      "Ġeast": 1615,
      "Ġground": 1616,
      "119": 1617,
      "Ġvine": 1618,
      "med": 1619,
      "Ġhon": 1620,
      "Ġborn": 1621,
      "hand": 1622,
      "ents": 1623,
      "Ġ15": 1624,
      "essel": 1625,
      "ird": 1626,
      "ely": 1627,
      "ĠJordan": 1628,
      "usband": 1629,
      "Ġvessel": 1630,
      "Ġdesol": 1631,
      "49": 1632,
      "ired": 1633,
      "Ġwhile": 1634,
      "ĠEs": 1635,
      "Ġworshi": 1636,
      "de": 1637,
      "oam": 1638,
      "Ġmanner": 1639,
      "ĠOf": 1640,
      "ĠPaul": 1641,
      "Ġbegan": 1642,
      "aal": 1643,
      "by": 1644,
      "jah": 1645,
      "Ġafraid": 1646,
      "Ġstone": 1647,
      "Ġrejoice": 1648,
      "Ġsal": 1649,
      "Ġass": 1650,
      "Ġbroken": 1651,
      "Ġbelieve": 1652,
      "Ġsun": 1653,
      "har": 1654,
      "rose": 1655,
      "Ġsuff": 1656,
      "Ġcontin": 1657,
      "Ġvis": 1658,
      "Ġyourselves": 1659,
      "Ġjudge": 1660,
      "Ġinhabitants": 1661,
      "Ġfar": 1662,
      "Ġcorn": 1663,
      "alley": 1664,
      "Ġwomen": 1665,
      "Ġslain": 1666,
      "jamin": 1667,
      "aac": 1668,
      "Ġ14": 1669,
      "Ġarose": 1670,
      "Ġread": 1671,
      "Ġprep": 1672,
      "Ġreturned": 1673,
      "Ġblessed": 1674,
      "Ġwitness": 1675,
      "47": 1676,
      "Ġ13": 1677,
      "ison": 1678,
      "haz": 1679,
      "Ġtrust": 1680,
      "Ġnumber": 1681,
      "Ġelders": 1682,
      "50": 1683,
      "Ġest": 1684,
      "Ġknew": 1685,
      "Ġtwelve": 1686,
      "Ġthirty": 1687,
      "vation": 1688,
      "Ġscri": 1689,
      "Ġhid": 1690,
      "imes": 1691,
      "erem": 1692,
      "Ġremain": 1693,
      "Ġback": 1694,
      "gue": 1695,
      "ang": 1696,
      "Ġhel": 1697,
      "Ġwithin": 1698,
      "Ġjust": 1699,
      "Ġcannot": 1700,
      "dow": 1701,
      "pass": 1702,
      "Ġtest": 1703,
      "Ġsins": 1704,
      "Ġthrone": 1705,
      "vers": 1706,
      "Ġaffli": 1707,
      "land": 1708,
      "ring": 1709,
      "Ġdra": 1710,
      "Ġtill": 1711,
      "Ġbuilt": 1712,
      "Ġrul": 1713,
      "ĠEphraim": 1714,
      "Ġbody": 1715,
      "ye": 1716,
      "ton": 1717,
      "Ġbattle": 1718,
      "Ġthough": 1719,
      "ĠHo": 1720,
      "ĠPeter": 1721,
      "Ġkept": 1722,
      "ĠSpirit": 1723,
      "Ġstat": 1724,
      "bour": 1725,
      "ls": 1726,
      "Ġhere": 1727,
      "Ġhusband": 1728,
      "ated": 1729,
      "Ġnam": 1730,
      "Ġprov": 1731,
      "ighbour": 1732,
      "ared": 1733,
      "oke": 1734,
      "sure": 1735,
      "were": 1736,
      "Ġram": 1737,
      "comm": 1738,
      "Ġsecond": 1739,
      "Ġox": 1740,
      "Ġhaving": 1741,
      "ĠGil": 1742,
      "ury": 1743,
      "Ġchari": 1744,
      "Ġcountry": 1745,
      "day": 1746,
      "go": 1747,
      "Ġcould": 1748,
      "iness": 1749,
      "Ġsabb": 1750,
      "ĠTake": 1751,
      "irc": 1752,
      "Ġknowledge": 1753,
      "Ġdef": 1754,
      "Ġpassed": 1755,
      "Ġsabbath": 1756,
      "51": 1757,
      "Ġmar": 1758,
      "ereth": 1759,
      "Ġrepro": 1760,
      "Ġteach": 1761,
      "ĠJon": 1762,
      "used": 1763,
      "ĠDan": 1764,
      "Ġabomin": 1765,
      "Ġcommandment": 1766,
      "Ġmountains": 1767,
      "ices": 1768,
      "lf": 1769,
      "Ġtong": 1770,
      "any": 1771,
      "Ġnew": 1772,
      "Ġsouth": 1773,
      "Ġminister": 1774,
      "Ġfat": 1775,
      "ceed": 1776,
      "ĠThy": 1777,
      "Ġable": 1778,
      "Ġstones": 1779,
      "ĊĊĊ": 1780,
      "Ġconsum": 1781,
      "Ġwait": 1782,
      "ĠBenjamin": 1783,
      "Ġwhether": 1784,
      "eremiah": 1785,
      "ult": 1786,
      "Ġfilled": 1787,
      "Ġinst": 1788,
      "Ġborder": 1789,
      "ircum": 1790,
      "ense": 1791,
      "Ġfeast": 1792,
      "Ġtouch": 1793,
      "Ġpie": 1794,
      "ĠHez": 1795,
      "Ġlifted": 1796,
      "Ġcloud": 1797,
      "asseh": 1798,
      "aph": 1799,
      "oreover": 1800,
      "iles": 1801,
      "Ġvalley": 1802,
      "fect": 1803,
      "Ġreigned": 1804,
      "Ġfifty": 1805,
      "ircumc": 1806,
      "sal": 1807,
      "ten": 1808,
      "teen": 1809,
      "Ġ22": 1810,
      "Ġsign": 1811,
      "Ġwast": 1812,
      "ean": 1813,
      "eared": 1814,
      "ĠJo": 1815,
      "Ġbreak": 1816,
      "Ġfamilies": 1817,
      "Ġ18": 1818,
      "Ġsing": 1819,
      "host": 1820,
      "ouses": 1821,
      "Ġord": 1822,
      "pped": 1823,
      "Ġbull": 1824,
      "Ġbeasts": 1825,
      "bu": 1826,
      "Ġtransg": 1827,
      "abl": 1828,
      "Ġears": 1829,
      "Ġhelp": 1830,
      "wise": 1831,
      "sec": 1832,
      "Ġref": 1833,
      "Ġsep": 1834,
      "ĠMoreover": 1835,
      "Ġthence": 1836,
      "Ġdestroyed": 1837,
      "ace": 1838,
      "saying": 1839,
      "ĠAd": 1840,
      "Ġlie": 1841,
      "Ġnorth": 1842,
      "ĠZion": 1843,
      "Ġwherein": 1844,
      "alt": 1845,
      "Ġcattle": 1846,
      "Ġkill": 1847,
      "Jer": 1848,
      "bre": 1849,
      "under": 1850,
      "Ġlooked": 1851,
      "ĠCanaan": 1852,
      "ceived": 1853,
      "ĠNe": 1854,
      "lessed": 1855,
      "ohn": 1856,
      "Ġtrees": 1857,
      "Ġreceived": 1858,
      "Ġincre": 1859,
      "ĠManasseh": 1860,
      "Ġdarkness": 1861,
      "Th": 1862,
      "born": 1863,
      "uary": 1864,
      "you": 1865,
      "Ġsk": 1866,
      "ened": 1867,
      "ĠHear": 1868,
      "ĠWhy": 1869,
      "Ġliving": 1870,
      "Ġcontinu": 1871,
      "father": 1872,
      "ks": 1873,
      "Ġcamp": 1874,
      "Ġcommandments": 1875,
      "Ġglad": 1876,
      "Ġgrace": 1877,
      "ĠSamuel": 1878,
      "ĠHoly": 1879,
      "do": 1880,
      "pla": 1881,
      "ats": 1882,
      "ĠAn": 1883,
      "Ġpers": 1884,
      "Ġforty": 1885,
      "Ġfast": 1886,
      "Ġstri": 1887,
      "ivity": 1888,
      "Ġvessels": 1889,
      "ian": 1890,
      "Ġgates": 1891,
      "ĠJoab": 1892,
      "ĠSe": 1893,
      "Ġneighbour": 1894,
      "Ġenter": 1895,
      "Ġcounsel": 1896,
      "ling": 1897,
      "lse": 1898,
      "Ġid": 1899,
      "Ġ19": 1900,
      "Ġhop": 1901,
      "Ġfled": 1902,
      "Ġgu": 1903,
      "Ġsake": 1904,
      "entiles": 1905,
      "ĠAss": 1906,
      "ieth": 1907,
      "mp": 1908,
      "your": 1909,
      "utes": 1910,
      "oint": 1911,
      "Ġbullo": 1912,
      "ech": 1913,
      "rown": 1914,
      "Ġ16": 1915,
      "this": 1916,
      "Ġhill": 1917,
      "ĠJohn": 1918,
      "Ġwash": 1919,
      "Ġpreach": 1920,
      "Ġcaptain": 1921,
      "Ġcarried": 1922,
      "Ġsalvation": 1923,
      "but": 1924,
      "ined": 1925,
      "Ġwood": 1926,
      "ĠJeremiah": 1927,
      "ruction": 1928,
      "Ġheathen": 1929,
      "Ġoffered": 1930,
      "Ġbegin": 1931,
      "no": 1932,
      "wor": 1933,
      "into": 1934,
      "Ġmoney": 1935,
      "Ġpill": 1936,
      "let": 1937,
      "Ġthought": 1938,
      "ĠNeb": 1939,
      "Ġmust": 1940,
      "Ġthroughout": 1941,
      "Ġopened": 1942,
      "command": 1943,
      "Ġpal": 1944,
      "Ġwhy": 1945,
      "Ġtimes": 1946,
      "acc": 1947,
      "Ġrose": 1948,
      "Ġdesolate": 1949,
      "oe": 1950,
      "iled": 1951,
      "Ġstra": 1952,
      "Ġshek": 1953,
      "Ġbecome": 1954,
      "ĠHam": 1955,
      "ney": 1956,
      "Ġshewed": 1957,
      "Ġ21": 1958,
      "Ġmind": 1959,
      "Ġgoeth": 1960,
      "bey": 1961,
      "Ġslay": 1962,
      "Ġhalf": 1963,
      "aria": 1964,
      "Ġmeet": 1965,
      "Ġstranger": 1966,
      "mer": 1967,
      "oved": 1968,
      "Ġhouses": 1969,
      "Ġmost": 1970,
      "Ġprom": 1971,
      "Ġnation": 1972,
      "hamed": 1973,
      "escap": 1974,
      "ĠHezekiah": 1975,
      "might": 1976,
      "Ġ20": 1977,
      "ĠIsaac": 1978,
      "Ġidol": 1979,
      "aith": 1980,
      "hea": 1981,
      "pl": 1982,
      "Ġgri": 1983,
      "abour": 1984,
      "ief": 1985,
      "last": 1986,
      "Ġneed": 1987,
      "Ġheavens": 1988,
      "Ġhonour": 1989,
      "teth": 1990,
      "yard": 1991,
      "Ġwives": 1992,
      "Ġfors": 1993,
      "ĠCome": 1994,
      "Ġwhosoever": 1995,
      "aked": 1996,
      "orns": 1997,
      "Ġrise": 1998,
      "Ġpresent": 1999,
      "hur": 2000,
      "vour": 2001,
      "Ġap": 2002,
      "ery": 2003,
      "Ġbea": 2004,
      "Ġmour": 2005,
      "Ġspread": 2006,
      "ĠWhich": 2007,
      "cted": 2008,
      "Ġprof": 2009,
      "shalt": 2010,
      "Ġwhatsoever": 2011,
      "thereof": 2012,
      "Ġhope": 2013,
      "ba": 2014,
      "lly": 2015,
      "ease": 2016,
      "Ġwhither": 2017,
      "ift": 2018,
      "ally": 2019,
      "Ġmountain": 2020,
      "Ġopp": 2021,
      "lee": 2022,
      "ĠGentiles": 2023,
      "Ġswe": 2024,
      "ĠYet": 2025,
      "righteous": 2026,
      "Ġcompass": 2027,
      "Ġunderstanding": 2028,
      "Ġcourt": 2029,
      "sen": 2030,
      "ĠOne": 2031,
      "aves": 2032,
      "Ġservice": 2033,
      "ounded": 2034,
      "Ġdream": 2035,
      "ced": 2036,
      "ures": 2037,
      "Ġsister": 2038,
      "Ġmaster": 2039,
      "hah": 2040,
      "lem": 2041,
      "urbs": 2042,
      "Ġgiveth": 2043,
      "Ġsought": 2044,
      "Ġdesp": 2045,
      "Ġasked": 2046,
      "lech": 2047,
      "Ġbrass": 2048,
      "Ġdidst": 2049,
      "Ġprophes": 2050,
      "Ġappointed": 2051,
      "Ġnumbered": 2052,
      "Ġdecla": 2053,
      "Ġtransgress": 2054,
      "nor": 2055,
      "Ġ23": 2056,
      "ims": 2057,
      "ĠBaal": 2058,
      "ĠBlessed": 2059,
      "essen": 2060,
      "Ġmaketh": 2061,
      "Ġprison": 2062,
      "Ġanswer": 2063,
      "Ġperish": 2064,
      "Ġdesire": 2065,
      "Ġjudgments": 2066,
      "Ġsick": 2067,
      "Ġfamily": 2068,
      "Ġincense": 2069,
      "Ġchosen": 2070,
      "Jerusalem": 2071,
      "pe": 2072,
      "ram": 2073,
      "uc": 2074,
      "eless": 2075,
      "ows": 2076,
      "Ġstre": 2077,
      "Ġsinned": 2078,
      "Ġseventh": 2079,
      "Ġsanctuary": 2080,
      "Ġstatutes": 2081,
      "cious": 2082,
      "ught": 2083,
      "rif": 2084,
      "Ġrede": 2085,
      "respass": 2086,
      "orses": 2087,
      "Ġtongue": 2088,
      "Ġredeem": 2089,
      "hor": 2090,
      "Ġescap": 2091,
      "Ġter": 2092,
      "Ġcomfor": 2093,
      "ĠWhere": 2094,
      "Ġlips": 2095,
      "Ġeye": 2096,
      "Ġcaptivity": 2097,
      "bled": 2098,
      "rise": 2099,
      "she": 2100,
      "we": 2101,
      "Ġfore": 2102,
      "Ġship": 2103,
      "ters": 2104,
      "Ġstret": 2105,
      "Ġbond": 2106,
      "Ġleave": 2107,
      "eed": 2108,
      "vail": 2109,
      "Ġob": 2110,
      "Ġport": 2111,
      "Ġshut": 2112,
      "Ġrod": 2113,
      "Ġtreas": 2114,
      "Ġbeside": 2115,
      "ĠJonathan": 2116,
      "Ġ25": 2117,
      "Ġful": 2118,
      "Ġdri": 2119,
      "riend": 2120,
      "ush": 2121,
      "ourney": 2122,
      "Ġvain": 2123,
      "pher": 2124,
      "phat": 2125,
      "Ġwalked": 2126,
      "ĠGilead": 2127,
      "Ġpieces": 2128,
      "te": 2129,
      "uted": 2130,
      "ason": 2131,
      "Ġeight": 2132,
      "because": 2133,
      "oboam": 2134,
      "ĠAmmon": 2135,
      "Ġcaptains": 2136,
      "ĠSamaria": 2137,
      "Ġsuburbs": 2138,
      "great": 2139,
      "inen": 2140,
      "Ġfine": 2141,
      "ones": 2142,
      "elah": 2143,
      "ceive": 2144,
      "ement": 2145,
      "Ġperfect": 2146,
      "Ġenemy": 2147,
      "Ġvineyard": 2148,
      "ĠAssyria": 2149,
      "52": 2150,
      "The": 2151,
      "Ġsorrow": 2152,
      "Ġbed": 2153,
      "Ġgr": 2154,
      "Ġmyself": 2155,
      "ĠNo": 2156,
      "Ġhearts": 2157,
      "Ġfoot": 2158,
      "Ġrock": 2159,
      "Ġwickedness": 2160,
      "Ġpresence": 2161,
      "Ġflock": 2162,
      "Ġreproach": 2163,
      "according": 2164,
      "bel": 2165,
      "even": 2166,
      "Ġhor": 2167,
      "Ġhorses": 2168,
      "Ġobey": 2169,
      "Ġlion": 2170,
      "Ġshame": 2171,
      "Ġdevil": 2172,
      "itted": 2173,
      "Ġtrump": 2174,
      "Ġsmite": 2175,
      "ĠAlso": 2176,
      "ĠShall": 2177,
      "Ġestabl": 2178,
      "Ġsweet": 2179,
      "ient": 2180,
      "isha": 2181,
      "Ġfight": 2182,
      "Ġchur": 2183,
      "Ġsold": 2184,
      "ĠYea": 2185,
      "Ġbelieved": 2186,
      "Ġcurse": 2187,
      "Ġtrouble": 2188,
      "lasting": 2189,
      "ience": 2190,
      "Ġwro": 2191,
      "Ġmessen": 2192,
      "Ġflee": 2193,
      "urden": 2194,
      "ĠBal": 2195,
      "Ġashamed": 2196,
      "Ġheads": 2197,
      "may": 2198,
      "Ġind": 2199,
      "Ġsit": 2200,
      "Ġca": 2201,
      "Ġdust": 2202,
      "Ġlabour": 2203,
      "Ġmayest": 2204,
      "forth": 2205,
      "Ġfollowed": 2206,
      "aam": 2207,
      "zzar": 2208,
      "Ġ24": 2209,
      "iron": 2210,
      "ears": 2211,
      "ressed": 2212,
      "what": 2213,
      "Ġentered": 2214,
      "Ġchariots": 2215,
      "ceeding": 2216,
      "ĠNeither": 2217,
      "hon": 2218,
      "things": 2219,
      "Ġbound": 2220,
      "Ġcor": 2221,
      "Ġget": 2222,
      "Ġtrespass": 2223,
      "ĠEdom": 2224,
      "Ġvan": 2225,
      "loved": 2226,
      "Ġtribes": 2227,
      "Ġbetter": 2228,
      "Ġscatter": 2229,
      "Ġgenerations": 2230,
      "Ġworship": 2231,
      "Ġbeginning": 2232,
      "ael": 2233,
      "vest": 2234,
      "Ġreward": 2235,
      "Ġcoast": 2236,
      "Ġris": 2237,
      "ĠAbsal": 2238,
      "Ġfirstborn": 2239,
      "Ġcovered": 2240,
      "ĠAbsalom": 2241,
      "fo": 2242,
      "tw": 2243,
      "Ġ17": 2244,
      "theless": 2245,
      "Ġsore": 2246,
      "Ġnigh": 2247,
      "Ġvi": 2248,
      "Ġnever": 2249,
      "Ġloved": 2250,
      "aughter": 2251,
      "when": 2252,
      "Ġwherewith": 2253,
      "Ġremember": 2254,
      "Ġoxen": 2255,
      "Ġidols": 2256,
      "filled": 2257,
      "zer": 2258,
      "Ġmorrow": 2259,
      "Ġbecame": 2260,
      "arm": 2261,
      "Ġres": 2262,
      "Ġjourney": 2263,
      "Ġknoweth": 2264,
      "ĠJeroboam": 2265,
      "every": 2266,
      "Ġexalt": 2267,
      "Ġrain": 2268,
      "Ġprepared": 2269,
      "Ġtestimon": 2270,
      "Ġ29": 2271,
      "Ġthither": 2272,
      "Ġsound": 2273,
      "eah": 2274,
      "Ġbeloved": 2275,
      "Ġsaved": 2276,
      "ĠBar": 2277,
      "Ġasse": 2278,
      "Ġalone": 2279,
      "Ġsmall": 2280,
      "Ġrun": 2281,
      "ĠPharise": 2282,
      "Ġclothes": 2283,
      "place": 2284,
      "cha": 2285,
      "gs": 2286,
      "reesc": 2287,
      "Ġbones": 2288,
      "Ġmatter": 2289,
      "ision": 2290,
      "Ġdel": 2291,
      "Ġlinen": 2292,
      "Ġgre": 2293,
      "ries": 2294,
      "ĠEven": 2295,
      "run": 2296,
      "Ġabund": 2297,
      "Ġbran": 2298,
      "Ġeaten": 2299,
      "Ġprince": 2300,
      "Ġimage": 2301,
      "ĠJehoi": 2302,
      "Ġsuffer": 2303,
      "Ġbullock": 2304,
      "Ġportion": 2305,
      "Ġhorse": 2306,
      "reescore": 2307,
      "nant": 2308,
      "sac": 2309,
      "Ġiron": 2310,
      "Ġnaked": 2311,
      "Ġtent": 2312,
      "ĠGad": 2313,
      "Ġgosp": 2314,
      "Ġfalse": 2315,
      "Ġburied": 2316,
      "Ġprayer": 2317,
      "Ġutterly": 2318,
      "ĠEsau": 2319,
      "Ġgospel": 2320,
      "pre": 2321,
      "ual": 2322,
      "word": 2323,
      "ying": 2324,
      "Ġ26": 2325,
      "Ġ27": 2326,
      "tor": 2327,
      "Ġcher": 2328,
      "Ġpure": 2329,
      "ali": 2330,
      "Ġdoeth": 2331,
      "Ġsupp": 2332,
      "Ġwatch": 2333,
      "uben": 2334,
      "Ġsleep": 2335,
      "Ġgarments": 2336,
      "Ġcharge": 2337,
      "Ġincrease": 2338,
      "uchad": 2339,
      "dest": 2340,
      "more": 2341,
      "hald": 2342,
      "Ġcoming": 2343,
      "Ġstill": 2344,
      "ways": 2345,
      "Ġplague": 2346,
      "urely": 2347,
      "Ġliveth": 2348,
      "Ġrepent": 2349,
      "Ġready": 2350,
      "ĠV": 2351,
      "Ġhour": 2352,
      "Ġburden": 2353,
      "Ġfriend": 2354,
      "ided": 2355,
      "Ġgoats": 2356,
      "ĠHer": 2357,
      "ĠMic": 2358,
      "rupt": 2359,
      "Ġriches": 2360,
      "Ġappear": 2361,
      "should": 2362,
      "Ġconsumed": 2363,
      "after": 2364,
      "jud": 2365,
      "ues": 2366,
      "wi": 2367,
      "who": 2368,
      "Ġought": 2369,
      "ĠAhab": 2370,
      "aniah": 2371,
      "Ġtra": 2372,
      "Ġsain": 2373,
      "ĠHis": 2374,
      "ĠHan": 2375,
      "hob": 2376,
      "Ġstead": 2377,
      "osed": 2378,
      "imelech": 2379,
      "lic": 2380,
      "Ġlift": 2381,
      "Ġburned": 2382,
      "Ġnames": 2383,
      "Ġcherub": 2384,
      "give": 2385,
      "Ġbapt": 2386,
      "Ġtop": 2387,
      "Ġgird": 2388,
      "also": 2389,
      "ĠOn": 2390,
      "proph": 2391,
      "mbers": 2392,
      "ier": 2393,
      "Ġbra": 2394,
      "owed": 2395,
      "Ġgoing": 2396,
      "Ġprosp": 2397,
      "neither": 2398,
      "iced": 2399,
      "Ġexceeding": 2400,
      "Ġblind": 2401,
      "hem": 2402,
      "Ġwest": 2403,
      "ĠGive": 2404,
      "Ġrequ": 2405,
      "ĠEgyptians": 2406,
      "Ġfeed": 2407,
      "Ġmultip": 2408,
      "servant": 2409,
      "mighty": 2410,
      "bit": 2411,
      "made": 2412,
      "zz": 2413,
      "Ġ28": 2414,
      "through": 2415,
      "Ġac": 2416,
      "lled": 2417,
      "Ġmaid": 2418,
      "ider": 2419,
      "Ġte": 2420,
      "ari": 2421,
      "road": 2422,
      "shaphat": 2423,
      "Ġremoved": 2424,
      "Ġremnant": 2425,
      "standing": 2426,
      "Ġcarry": 2427,
      "Ġshekels": 2428,
      "down": 2429,
      "na": 2430,
      "vent": 2431,
      "Ġsitt": 2432,
      "Ġwrought": 2433,
      "Ġcreat": 2434,
      "Ġpar": 2435,
      "Ġseeing": 2436,
      "ĠZeb": 2437,
      "Ġfaithful": 2438,
      "Ġsecret": 2439,
      "Ġgeneration": 2440,
      "pherd": 2441,
      "Ġassemb": 2442,
      "Ġsaints": 2443,
      "uth": 2444,
      "xed": 2445,
      "Ġhate": 2446,
      "ĠAfter": 2447,
      "Ġupright": 2448,
      "ilk": 2449,
      "ĠBy": 2450,
      "ros": 2451,
      "Ġweep": 2452,
      "Ġangels": 2453,
      "Ġfamine": 2454,
      "Ġpossession": 2455,
      "servants": 2456,
      "ircumcised": 2457,
      "eans": 2458,
      "ĠPharisees": 2459,
      "br": 2460,
      "des": 2461,
      "oc": 2462,
      "saith": 2463,
      "Ġhun": 2464,
      "ength": 2465,
      "Ġfow": 2466,
      "Ġcru": 2467,
      "eath": 2468,
      "Ġlast": 2469,
      "ĠGal": 2470,
      "ĠSurely": 2471,
      "Ġreason": 2472,
      "Ġearly": 2473,
      "Ġraised": 2474,
      "ĠReuben": 2475,
      "Ġmeasu": 2476,
      "Ġgarment": 2477,
      "Ġruler": 2478,
      "tonement": 2479,
      "Ġsepar": 2480,
      "Ġpillars": 2481,
      "most": 2482,
      "pr": 2483,
      "priest": 2484,
      "sing": 2485,
      "xt": 2486,
      "Ġcam": 2487,
      "ĠAt": 2488,
      "ode": 2489,
      "rust": 2490,
      "Ġrich": 2491,
      "Ġcommitted": 2492,
      "righteousness": 2493,
      "neth": 2494,
      "went": 2495,
      "thine": 2496,
      "Ġtar": 2497,
      "Ġanointed": 2498,
      "Ġgover": 2499,
      "hind": 2500,
      "Ġgreatly": 2501,
      "Ġbreadth": 2502,
      "Ġplain": 2503,
      "Ġfoolish": 2504,
      "Ġdraw": 2505,
      "Ġcaused": 2506,
      "Ġvanity": 2507,
      "Ġthreescore": 2508,
      "Ġwidow": 2509,
      "Ġlength": 2510,
      "Ġnoise": 2511,
      "cend": 2512,
      "ceit": 2513,
      "ĠGhost": 2514,
      "ĠMa": 2515,
      "abb": 2516,
      "Ġvill": 2517,
      "Ġdeep": 2518,
      "Ġdestruction": 2519,
      "Ġarmy": 2520,
      "Ġdrew": 2521,
      "Ġapost": 2522,
      "Egypt": 2523,
      "app": 2524,
      "cover": 2525,
      "full": 2526,
      "nt": 2527,
      "together": 2528,
      "orites": 2529,
      "esus": 2530,
      "ĠAhi": 2531,
      "hast": 2532,
      "Ġhair": 2533,
      "asso": 2534,
      "Ġreg": 2535,
      "Ġrev": 2536,
      "Ġeverlasting": 2537,
      "Ġenqu": 2538,
      "Ġplant": 2539,
      "Ġcompany": 2540,
      "ĠUn": 2541,
      "offering": 2542,
      "Ġrefu": 2543,
      "78": 2544,
      "bro": 2545,
      "iving": 2546,
      "know": 2547,
      "ook": 2548,
      "oura": 2549,
      "Ġcrown": 2550,
      "Ġbeat": 2551,
      "Ġled": 2552,
      "chief": 2553,
      "urt": 2554,
      "ĠElea": 2555,
      "ĠWoe": 2556,
      "Ġalive": 2557,
      "Ġabroad": 2558,
      "Ġsware": 2559,
      "ĊĊĊĊ": 2560,
      "Ġaffliction": 2561,
      "ĠDaniel": 2562,
      "ĠNebuchad": 2563,
      "assover": 2564,
      "deliver": 2565,
      "maid": 2566,
      "Ġwond": 2567,
      "Ġcup": 2568,
      "Ġlead": 2569,
      "Ġheed": 2570,
      "Ġtalk": 2571,
      "vened": 2572,
      "otten": 2573,
      "Ġhealed": 2574,
      "Ġ31": 2575,
      "Ġwrite": 2576,
      "Ġrule": 2577,
      "therefore": 2578,
      "Ġpitched": 2579,
      "Ġflocks": 2580,
      "Ġdeclare": 2581,
      "jour": 2582,
      "Ġhither": 2583,
      "ough": 2584,
      "ens": 2585,
      "eaketh": 2586,
      "Ġpor": 2587,
      "Ġpoured": 2588,
      "iful": 2589,
      "ĠChald": 2590,
      "behold": 2591,
      "ĠRem": 2592,
      "Ġtrue": 2593,
      "ago": 2594,
      "Ġfourth": 2595,
      "ĠJehoshaphat": 2596,
      "Ġrulers": 2597,
      "Ġinstru": 2598,
      "55": 2599,
      "congregation": 2600,
      "lest": 2601,
      "yn": 2602,
      "Ġsear": 2603,
      "Ġbar": 2604,
      "Ġfig": 2605,
      "Ġcal": 2606,
      "Ġtaught": 2607,
      "riah": 2608,
      "ĠSimon": 2609,
      "ĠIsh": 2610,
      "ication": 2611,
      "themselves": 2612,
      "eban": 2613,
      "Ġtable": 2614,
      "Ġtenth": 2615,
      "Ġlamb": 2616,
      "Ġhearkened": 2617,
      "Ġvision": 2618,
      "Ġcontinually": 2619,
      "Ġmessengers": 2620,
      "bear": 2621,
      "bron": 2622,
      "head": 2623,
      "sc": 2624,
      "Ġed": 2625,
      "erily": 2626,
      "Ġlot": 2627,
      "irg": 2628,
      "Ġrebu": 2629,
      "aint": 2630,
      "Ġabide": 2631,
      "Ġcond": 2632,
      "ĠJez": 2633,
      "ĠZer": 2634,
      "ilee": 2635,
      "ĠShem": 2636,
      "Ġdevour": 2637,
      "Ġvisit": 2638,
      "thous": 2639,
      "Ġhide": 2640,
      "Ġwear": 2641,
      "ately": 2642,
      "Ġced": 2643,
      "Ġpast": 2644,
      "Ġshadow": 2645,
      "Ġwherefore": 2646,
      "irm": 2647,
      "earth": 2648,
      "Ġones": 2649,
      "ĠNever": 2650,
      "Ġbreast": 2651,
      "Ġknowest": 2652,
      "aths": 2653,
      "Ġ32": 2654,
      "Ġran": 2655,
      "ĠAbi": 2656,
      "Ġtaketh": 2657,
      "yrians": 2658,
      "Ġstrange": 2659,
      "Ġbowed": 2660,
      "Ġdelight": 2661,
      "ebanon": 2662,
      "thousand": 2663,
      "aff": 2664,
      "cus": 2665,
      "dis": 2666,
      "gl": 2667,
      "sue": 2668,
      "Ġact": 2669,
      "Ġbas": 2670,
      "Ġdam": 2671,
      "Ġdrun": 2672,
      "answ": 2673,
      "chem": 2674,
      "among": 2675,
      "ĠOr": 2676,
      "ĠHebron": 2677,
      "ulch": 2678,
      "ĠRam": 2679,
      "Ġbringeth": 2680,
      "ĠKing": 2681,
      "Ġgrave": 2682,
      "eseech": 2683,
      "Ġfallen": 2684,
      "Ġflour": 2685,
      "ĠSpeak": 2686,
      "Ġrams": 2687,
      "Ġfulfilled": 2688,
      "Ġchurch": 2689,
      "Ġaccept": 2690,
      "ĠNevertheless": 2691,
      "bread": 2692,
      "much": 2693,
      "ners": 2694,
      "take": 2695,
      "Ġver": 2696,
      "Ġfish": 2697,
      "eas": 2698,
      "itter": 2699,
      "Ġpun": 2700,
      "Ġhabit": 2701,
      "Ġele": 2702,
      "ĠSyria": 2703,
      "Ġshepherd": 2704,
      "Ġlikewise": 2705,
      "Ġthanks": 2706,
      "Ġsouls": 2707,
      "ĠLevi": 2708,
      "Ġmoved": 2709,
      "heaven": 2710,
      "ynago": 2711,
      "bed": 2712,
      "vy": 2713,
      "Ġatonement": 2714,
      "Ġwings": 2715,
      "Ġfree": 2716,
      "Ġcease": 2717,
      "ĠAhaz": 2718,
      "Ġwhite": 2719,
      "ĠJob": 2720,
      "Ġrebe": 2721,
      "ĠDo": 2722,
      "Ġcommit": 2723,
      "ĠAmen": 2724,
      "Ġrejo": 2725,
      "Ġclothed": 2726,
      "Ġabominations": 2727,
      "ĠVerily": 2728,
      "Ġbaptiz": 2729,
      "54": 2730,
      "Je": 2731,
      "Jud": 2732,
      "Lord": 2733,
      "der": 2734,
      "hundred": 2735,
      "make": 2736,
      "pent": 2737,
      "plea": 2738,
      "wat": 2739,
      "well": 2740,
      "Ġwo": 2741,
      "Ġbeseech": 2742,
      "Ġmis": 2743,
      "Ġmur": 2744,
      "Ġfeared": 2745,
      "Ġtow": 2746,
      "idian": 2747,
      "cell": 2748,
      "Ġyouth": 2749,
      "Ġfaces": 2750,
      "aliah": 2751,
      "ĠNot": 2752,
      "Ġarise": 2753,
      "Ġprey": 2754,
      "Ġendure": 2755,
      "Ġsacrifices": 2756,
      "Ġadvers": 2757,
      "Ġrivers": 2758,
      "Ġskin": 2759,
      "Ġbeaut": 2760,
      "Ġoppress": 2761,
      "Ġbrake": 2762,
      "ĠGalilee": 2763,
      "Ġvillages": 2764,
      "ĠEleazar": 2765,
      "Be": 2766,
      "aim": 2767,
      "name": 2768,
      "rem": 2769,
      "Ġfury": 2770,
      "Ġwhore": 2771,
      "Ġaside": 2772,
      "Ġspe": 2773,
      "Ġoffic": 2774,
      "beit": 2775,
      "umb": 2776,
      "Ġprecious": 2777,
      "tained": 2778,
      "Ġfew": 2779,
      "ĠUzz": 2780,
      "Ġprosper": 2781,
      "53": 2782,
      "air": 2783,
      "cloth": 2784,
      "live": 2785,
      "Ġobs": 2786,
      "Ġdry": 2787,
      "Ġbehind": 2788,
      "seth": 2789,
      "Ġgro": 2790,
      "ayed": 2791,
      "ĠTy": 2792,
      "adab": 2793,
      "Ġwept": 2794,
      "ards": 2795,
      "Ġgreater": 2796,
      "Ġdeceit": 2797,
      "Ġenc": 2798,
      "Ġwomb": 2799,
      "Ġtempt": 2800,
      "Ġimages": 2801,
      "ĠElijah": 2802,
      "ĠArise": 2803,
      "offer": 2804,
      "Ġscribes": 2805,
      "Ġstraight": 2806,
      "Ġprophesy": 2807,
      "Ġcorrupt": 2808,
      "Ġviol": 2809,
      "Ġtestimony": 2810,
      "Ġacts": 2811,
      "ect": 2812,
      "good": 2813,
      "ms": 2814,
      "wom": 2815,
      "Ġsn": 2816,
      "Ġpra": 2817,
      "Ġpassover": 2818,
      "Ġnin": 2819,
      "Ġlep": 2820,
      "icho": 2821,
      "ĠSar": 2822,
      "Ġrent": 2823,
      "ĠHaz": 2824,
      "Ġsojour": 2825,
      "leavened": 2826,
      "Ġwhereof": 2827,
      "Ġmeasure": 2828,
      "Ġlambs": 2829,
      "Ġdivided": 2830,
      "ealous": 2831,
      "Ġcomfort": 2832,
      "Ġstretched": 2833,
      "Ġgrass": 2834,
      "Ġverily": 2835,
      ",)": 2836,
      "David": 2837,
      "aily": 2838,
      "co": 2839,
      "fl": 2840,
      "fruit": 2841,
      "liness": 2842,
      "mount": 2843,
      "mber": 2844,
      "ory": 2845,
      "Ġden": 2846,
      "Ġdist": 2847,
      "Ġinter": 2848,
      "Ġpri": 2849,
      "Ġlow": 2850,
      "ĠLebanon": 2851,
      "ained": 2852,
      "Ġshield": 2853,
      "ĠMer": 2854,
      "ĠWith": 2855,
      "Ġsoon": 2856,
      "held": 2857,
      "ĠAmorites": 2858,
      "Ġquick": 2859,
      "Ġstrangers": 2860,
      "heart": 2861,
      "Ġprepare": 2862,
      "Ġprofit": 2863,
      "Ġestablished": 2864,
      "Ġbranches": 2865,
      "call": 2866,
      "ex": 2867,
      "eat": 2868,
      "lation": 2869,
      "Ġhorns": 2870,
      "Ġbitter": 2871,
      "edekiah": 2872,
      "amas": 2873,
      "ilig": 2874,
      "ada": 2875,
      "Ġseem": 2876,
      "Ġfail": 2877,
      "ĠMidian": 2878,
      "ĠFrom": 2879,
      "osh": 2880,
      "Ġjoin": 2881,
      "Ġworshipped": 2882,
      "Ġindeed": 2883,
      "Ġscattered": 2884,
      "Ġexalted": 2885,
      "destroy": 2886,
      "59": 2887,
      "away": 2888,
      "brought": 2889,
      "pes": 2890,
      "say": 2891,
      "Ġthink": 2892,
      "Ġsynago": 2893,
      "Ġhoney": 2894,
      "inces": 2895,
      "isf": 2896,
      "Ġfought": 2897,
      "ĠAh": 2898,
      "Ġpour": 2899,
      "ashan": 2900,
      "Ġkid": 2901,
      "Ġfavour": 2902,
      "Ġherd": 2903,
      "Ġserved": 2904,
      "Ġpersec": 2905,
      "Ġprevail": 2906,
      "Ġappeared": 2907,
      "ĠRehob": 2908,
      "ĠArt": 2909,
      "Ġkindled": 2910,
      "conc": 2911,
      "Ġtroubled": 2912,
      "Ġdefiled": 2913,
      "Ġsepulch": 2914,
      "Ġforsaken": 2915,
      "judg": 2916,
      "Ġcherubims": 2917,
      "Ġapostles": 2918,
      "amascus": 2919,
      "56": 2920,
      "57": 2921,
      "tri": 2922,
      "venty": 2923,
      "than": 2924,
      "inc": 2925,
      "rest": 2926,
      "Ġmak": 2927,
      "Ġfill": 2928,
      "see": 2929,
      "Ġsack": 2930,
      "ordec": 2931,
      "Ġspeaketh": 2932,
      "Ġdoors": 2933,
      "Ġabode": 2934,
      "resh": 2935,
      "Ġ30": 2936,
      "nezzar": 2937,
      "ĠAbram": 2938,
      "ĠAbimelech": 2939,
      "ĠAsh": 2940,
      "Ġthank": 2941,
      "Ġperfor": 2942,
      "Ġwalls": 2943,
      "ĠBalaam": 2944,
      "Ġcondem": 2945,
      "Judah": 2946,
      "ordecai": 2947,
      "Jesus": 2948,
      "city": 2949,
      "ial": 2950,
      "pit": 2951,
      "put": 2952,
      "test": 2953,
      "Ġve": 2954,
      "Ġhurt": 2955,
      "Ġflood": 2956,
      "Ġcre": 2957,
      "ĠAz": 2958,
      "Ġdou": 2959,
      "Ġloud": 2960,
      "Ġgard": 2961,
      "Ġtal": 2962,
      "asph": 2963,
      "ames": 2964,
      "Ġanoint": 2965,
      "Ġthereon": 2966,
      "Ġshout": 2967,
      "ĠFear": 2968,
      "Ġdeal": 2969,
      "ĠZedekiah": 2970,
      "ĠAsa": 2971,
      "Ġloveth": 2972,
      "Ġblessing": 2973,
      "Ġmonths": 2974,
      "Ġforget": 2975,
      "Ġasses": 2976,
      "days": 2977,
      "Ġabomination": 2978,
      "Ġwaste": 2979,
      "asphem": 2980,
      "66": 2981,
      "Ab": 2982,
      "fam": 2983,
      "kes": 2984,
      "kind": 2985,
      "nah": 2986,
      "sant": 2987,
      "tab": 2988,
      "Ġhat": 2989,
      "ert": 2990,
      "rection": 2991,
      "Ġcand": 2992,
      "Ġheight": 2993,
      "ides": 2994,
      "rible": 2995,
      "ently": 2996,
      "ĠHave": 2997,
      "Ġfair": 2998,
      "roud": 2999,
      "Ġweight": 3000,
      "Ġhousehold": 3001,
      "Ġworthy": 3002,
      "akim": 3003,
      "Ġ38": 3004,
      "Ġswear": 3005,
      "ĠAbner": 3006,
      "where": 3007,
      "Ġexec": 3008,
      "Ġparts": 3009,
      "Ġpleased": 3010,
      "Ġadult": 3011,
      "Ġmean": 3012,
      "ĠShechem": 3013,
      "fathers": 3014,
      "Ġhills": 3015,
      "cast": 3016,
      "god": 3017,
      "iet": 3018,
      "min": 3019,
      "pret": 3020,
      "sent": 3021,
      "wed": 3022,
      "wild": 3023,
      "Ġband": 3024,
      "atan": 3025,
      "Ġdilig": 3026,
      "Ġpu": 3027,
      "Ġlear": 3028,
      "Ġtents": 3029,
      "leth": 3030,
      "rah": 3031,
      "Ġupward": 3032,
      "Ġresto": 3033,
      "ĠEvery": 3034,
      "ĠTheir": 3035,
      "Ġvirg": 3036,
      "Ġevening": 3037,
      "Ġloins": 3038,
      "Ġlieth": 3039,
      "Ġsince": 3040,
      "lied": 3041,
      "Ġchamber": 3042,
      "Ġsmitten": 3043,
      "Ġjudged": 3044,
      "Ġprayed": 3045,
      "Ġgolden": 3046,
      "rows": 3047,
      "Ġharvest": 3048,
      "Ġfifth": 3049,
      "Ġsanctify": 3050,
      "Ġpurp": 3051,
      "teenth": 3052,
      "Ġtrumpet": 3053,
      "fully": 3054,
      "For": 3055,
      "burn": 3056,
      "hel": 3057,
      "ibe": 3058,
      "Ġer": 3059,
      "Ġweak": 3060,
      "Ġmag": 3061,
      "enance": 3062,
      "Ġfet": 3063,
      "Ġdaily": 3064,
      "Ġyoke": 3065,
      "Ġkilled": 3066,
      "ilate": 3067,
      "ĠSelah": 3068,
      "ĠSyrians": 3069,
      "ĠBel": 3070,
      "Ġseat": 3071,
      "ember": 3072,
      "oked": 3073,
      "ctr": 3074,
      "Ġafterward": 3075,
      "ĠJehu": 3076,
      "Ġchambers": 3077,
      "Ġthousands": 3078,
      "ĠKnow": 3079,
      "Ġrather": 3080,
      "Ġfellow": 3081,
      "Ġchariot": 3082,
      "brethren": 3083,
      "ĠSee": 3084,
      "Ġforsake": 3085,
      "Ġstreets": 3086,
      "Ġsearch": 3087,
      "Ġpunish": 3088,
      "Ġofficers": 3089,
      "60": 3090,
      "fall": 3091,
      "ives": 3092,
      "iately": 3093,
      "side": 3094,
      "Ġoath": 3095,
      "ince": 3096,
      "ingled": 3097,
      "Ġgift": 3098,
      "Ġsavour": 3099,
      "ĠSatan": 3100,
      "aban": 3101,
      "ckets": 3102,
      "Ġneck": 3103,
      "Ġnext": 3104,
      "umble": 3105,
      "ĠJericho": 3106,
      "Ġdealt": 3107,
      "Ġshouldest": 3108,
      "Ġseason": 3109,
      "Ġraise": 3110,
      "Ġpoll": 3111,
      "Ġsatisf": 3112,
      "Ġremembered": 3113,
      "mediately": 3114,
      "commanded": 3115,
      "Ġtreasures": 3116,
      "Ġdrive": 3117,
      "Ġwrote": 3118,
      "89": 3119,
      "Christ": 3120,
      "possess": 3121,
      "sm": 3122,
      "Ġhated": 3123,
      "int": 3124,
      "Ġbot": 3125,
      "Ġblem": 3126,
      "Ġmet": 3127,
      "Ġpost": 3128,
      "Ġlying": 3129,
      "ased": 3130,
      "odom": 3131,
      "Ġwilling": 3132,
      "ife": 3133,
      "ifts": 3134,
      "Ġseventy": 3135,
      "als": 3136,
      "Ġwhence": 3137,
      "imeon": 3138,
      "Ġ35": 3139,
      "Ġfood": 3140,
      "Ġexcell": 3141,
      "Ġaltars": 3142,
      "Ġfields": 3143,
      "Ġhard": 3144,
      "ĠBethel": 3145,
      "ĠEsther": 3146,
      "Ġescaped": 3147,
      "Ġabundance": 3148,
      "Ġgovernor": 3149,
      "Ġregard": 3150,
      "ĠChaldeans": 3151,
      "Ġbaptized": 3152,
      "wilderness": 3153,
      "Ġblemish": 3154,
      "Wh": 3155,
      "ike": 3156,
      "non": 3157,
      "sons": 3158,
      "tle": 3159,
      "Ġser": 3160,
      "Ġsow": 3161,
      "Ġmingled": 3162,
      "ĠAgain": 3163,
      "eareth": 3164,
      "ition": 3165,
      "Ġpub": 3166,
      "Ġbeheld": 3167,
      "ĠLaban": 3168,
      "lehem": 3169,
      "adok": 3170,
      "Ġshed": 3171,
      "ifest": 3172,
      "ĠHar": 3173,
      "ĠMaster": 3174,
      "Ġalways": 3175,
      "ĠDamascus": 3176,
      "ously": 3177,
      "like": 3178,
      "whom": 3179,
      "Ġothers": 3180,
      "Ġspeaking": 3181,
      "Ġqueen": 3182,
      "Ġpleasure": 3183,
      "Ġcurtain": 3184,
      "Ġforgive": 3185,
      "Ġnamed": 3186,
      "Ġmarve": 3187,
      "apht": 3188,
      "Ġorder": 3189,
      "Ġpersons": 3190,
      "wicked": 3191,
      "ĠNebuchadnezzar": 3192,
      "ibeon": 3193,
      ";)": 3194,
      "eem": 3195,
      "hes": 3196,
      "ible": 3197,
      "long": 3198,
      "mble": 3199,
      "nal": 3200,
      "time": 3201,
      "Ġaw": 3202,
      "Ġhy": 3203,
      "Ġhence": 3204,
      "Ġbind": 3205,
      "Ġfin": 3206,
      "Ġtown": 3207,
      "ane": 3208,
      "Ġlad": 3209,
      "asmuch": 3210,
      "arlet": 3211,
      "ĠGib": 3212,
      "ilence": 3213,
      "ursed": 3214,
      "ĠSaying": 3215,
      "ĠSimeon": 3216,
      "veng": 3217,
      "Ġaston": 3218,
      "Ġonce": 3219,
      "ĠMary": 3220,
      "ĠPilate": 3221,
      "leave": 3222,
      "Ġbuy": 3223,
      "ĠThough": 3224,
      "Ġdwelleth": 3225,
      "ileth": 3226,
      "Ġslaughter": 3227,
      "Ġchoose": 3228,
      "ĠElisha": 3229,
      "eshb": 3230,
      "Ġlament": 3231,
      "Ġspoiled": 3232,
      "ircumcision": 3233,
      "Ġpreached": 3234,
      "Ġthoughts": 3235,
      "Ġdespised": 3236,
      "brance": 3237,
      "Ġedge": 3238,
      "Am": 3239,
      "count": 3240,
      "capt": 3241,
      "ked": 3242,
      "lam": 3243,
      "mael": 3244,
      "Ġhang": 3245,
      "Ġmir": 3246,
      "Ġdomin": 3247,
      "ealed": 3248,
      "iting": 3249,
      "Ġgrow": 3250,
      "idon": 3251,
      "ideth": 3252,
      "aries": 3253,
      "ĠSi": 3254,
      "Ġsprink": 3255,
      "Ġhandmaid": 3256,
      "phod": 3257,
      "Ġheal": 3258,
      "Ġlived": 3259,
      "alek": 3260,
      "Ġ34": 3261,
      "Ġchang": 3262,
      "acher": 3263,
      "Ġexcept": 3264,
      "Ġdwelling": 3265,
      "Ġtables": 3266,
      "Ġcaptive": 3267,
      "Ġkingdoms": 3268,
      "Ġadd": 3269,
      "Ġpursu": 3270,
      "angu": 3271,
      "Ġredeemed": 3272,
      "ĠNoah": 3273,
      "Ġhabitation": 3274,
      "ctrine": 3275,
      "aphtali": 3276,
      "65": 3277,
      "bid": 3278,
      "gra": 3279,
      "lot": 3280,
      "tre": 3281,
      "rew": 3282,
      "iseth": 3283,
      "orah": 3284,
      "Ġdig": 3285,
      "Ġint": 3286,
      "ances": 3287,
      "stance": 3288,
      "iment": 3289,
      "Ġheld": 3290,
      "idings": 3291,
      "elf": 3292,
      "ĠSal": 3293,
      "ĠBashan": 3294,
      "ĠMordecai": 3295,
      "Ġdoings": 3296,
      "unc": 3297,
      "Ġ36": 3298,
      "without": 3299,
      "himself": 3300,
      "Ġgraven": 3301,
      "Ġblasphem": 3302,
      "Ġpleasant": 3303,
      "Ġafflicted": 3304,
      "Ġpromise": 3305,
      "ĠHerod": 3306,
      "ĠUnto": 3307,
      "brother": 3308,
      "Ġwonders": 3309,
      "Ġcedar": 3310,
      "Ġdominion": 3311,
      "found": 3312,
      "first": 3313,
      "ris": 3314,
      "uke": 3315,
      "Ġthirst": 3316,
      "Ġhome": 3317,
      "reel": 3318,
      "Ġbird": 3319,
      "Ġcou": 3320,
      "Ġund": 3321,
      "Ġlod": 3322,
      "Ġgifts": 3323,
      "amar": 3324,
      "ĠMiz": 3325,
      "106": 3326,
      "about": 3327,
      "Ġbrook": 3328,
      "Ġroot": 3329,
      "achel": 3330,
      "Ġends": 3331,
      "Ġplu": 3332,
      "Ġstanding": 3333,
      "Ġcountries": 3334,
      "Ġconsider": 3335,
      "zariah": 3336,
      "Ġsanctified": 3337,
      "Ġmoon": 3338,
      "ĠAlmighty": 3339,
      "Ġremained": 3340,
      "Ġguard": 3341,
      "ĠHaman": 3342,
      "Ġescape": 3343,
      "Ġdevils": 3344,
      "Ġfowls": 3345,
      "58": 3346,
      "Philistines": 3347,
      "aea": 3348,
      "cent": 3349,
      "ft": 3350,
      "gues": 3351,
      "oz": 3352,
      "rus": 3353,
      "ting": 3354,
      "yond": 3355,
      "Ġwea": 3356,
      "tom": 3357,
      "iss": 3358,
      "enced": 3359,
      "Ġtoo": 3360,
      "Ġproud": 3361,
      "Ġnet": 3362,
      "Ġbeyond": 3363,
      "Ġlust": 3364,
      "Ġunleavened": 3365,
      "Ġem": 3366,
      "ĠSt": 3367,
      "Ġrecom": 3368,
      "Ġreap": 3369,
      "Ġseeth": 3370,
      "ĠNa": 3371,
      "Ġjealous": 3372,
      "Ġproc": 3373,
      "Ġhaste": 3374,
      "Ġglorified": 3375,
      "Ġraiment": 3376,
      "ĠWhosoever": 3377,
      "ĠJosiah": 3378,
      "Ġflow": 3379,
      "ĠBethlehem": 3380,
      "Ġcharged": 3381,
      "Ġconsume": 3382,
      "Ġsigns": 3383,
      "ĠJoash": 3384,
      "Ġperson": 3385,
      "work": 3386,
      "Ġpromised": 3387,
      "Ġterrible": 3388,
      "ĠJehoiada": 3389,
      "sacrif": 3390,
      "Ġnakedness": 3391,
      "ĠIshmael": 3392,
      "Ġobserve": 3393,
      "ĠRehoboam": 3394,
      "Ġgarden": 3395,
      "68": 3396,
      "69": 3397,
      "aes": 3398,
      "ees": 3399,
      "evil": 3400,
      "gal": 3401,
      "ohath": 3402,
      "uri": 3403,
      "wr": 3404,
      "Ġmale": 3405,
      "Ġmark": 3406,
      "eds": 3407,
      "eased": 3408,
      "Ġpat": 3409,
      "Ġpot": 3410,
      "Ġnine": 3411,
      "Ġhell": 3412,
      "Ġred": 3413,
      "estilence": 3414,
      "antly": 3415,
      "laid": 3416,
      "Ġheareth": 3417,
      "ĠZadok": 3418,
      "Ġeateth": 3419,
      "Ġburning": 3420,
      "Ġdesired": 3421,
      "ĠAmalek": 3422,
      "Ġtrib": 3423,
      "cometh": 3424,
      "aziah": 3425,
      "Ġcarc": 3426,
      "Ġcompan": 3427,
      "Ġwheat": 3428,
      "Ġdevoured": 3429,
      "Ġordin": 3430,
      "Ġrisen": 3431,
      "Ġparable": 3432,
      "ĠZebul": 3433,
      "Ġcruc": 3434,
      "Ġenquire": 3435,
      "ĠRemember": 3436,
      "Ġspeech": 3437,
      "Ġsepulchre": 3438,
      "bles": 3439,
      "cord": 3440,
      "gener": 3441,
      "ror": 3442,
      "Ġeach": 3443,
      "Ġthrust": 3444,
      "Ġmilk": 3445,
      "has": 3446,
      "Ġbelly": 3447,
      "Ġlies": 3448,
      "Ġyield": 3449,
      "idence": 3450,
      "Ġep": 3451,
      "urrection": 3452,
      "ĠSodom": 3453,
      "ĠBring": 3454,
      "Ġsho": 3455,
      "ĠHad": 3456,
      "Ġstir": 3457,
      "105": 3458,
      "ĠWhi": 3459,
      "Ġoffend": 3460,
      "ĠNaphtali": 3461,
      "laim": 3462,
      "ĠCaes": 3463,
      "Ġsockets": 3464,
      "Ġliken": 3465,
      "Ġpride": 3466,
      "areth": 3467,
      "Ġchast": 3468,
      "Ġjudges": 3469,
      "Ġfoundation": 3470,
      "Ġbuilded": 3471,
      "ĠElias": 3472,
      "Ġforgiven": 3473,
      "Ġscript": 3474,
      "Ġscribe": 3475,
      "Ġwroth": 3476,
      "Ġhorsemen": 3477,
      "ierce": 3478,
      "Ġdamsel": 3479,
      "Ġtower": 3480,
      "Ġwhoredom": 3481,
      "offerings": 3482,
      "Ġviolence": 3483,
      "Ġinterpret": 3484,
      "Ġcreep": 3485,
      "tabernacle": 3486,
      "Ġpurif": 3487,
      "Ġempt": 3488,
      "63": 3489,
      "lay": 3490,
      "night": 3491,
      "Ġthorns": 3492,
      "Ġbury": 3493,
      "Ġche": 3494,
      "ĠAzariah": 3495,
      "hariah": 3496,
      "Ġlamp": 3497,
      "Ġlangu": 3498,
      "ĠLo": 3499,
      "Ġephod": 3500,
      "ety": 3501,
      "ĠSin": 3502,
      "Ġsong": 3503,
      "Ġstars": 3504,
      "ĠNathan": 3505,
      "ĠPraise": 3506,
      "Ġafar": 3507,
      "Ġsum": 3508,
      "Ġswall": 3509,
      "aired": 3510,
      "Ġtread": 3511,
      "Ġslept": 3512,
      "Ġscarlet": 3513,
      "Ġiniquities": 3514,
      "Ġblue": 3515,
      "ĠHowbeit": 3516,
      "stone": 3517,
      "Ġwitnesses": 3518,
      "Ġclouds": 3519,
      "eance": 3520,
      "Ġincreased": 3521,
      "Ġstretch": 3522,
      "Ġdriven": 3523,
      "Ġrefuge": 3524,
      "ĠJezreel": 3525,
      "Ġmischief": 3526,
      "Ġbeauty": 3527,
      "called": 3528,
      "bring": 3529,
      "cities": 3530,
      "gar": 3531,
      "ias": 3532,
      "ijah": 3533,
      "nation": 3534,
      "sou": 3535,
      "tem": 3536,
      "walk": 3537,
      "three": 3538,
      "iniqu": 3539,
      "Ġwant": 3540,
      "reign": 3541,
      "Ġinward": 3542,
      "iram": 3543,
      "Ġitself": 3544,
      "ĠSay": 3545,
      "ĠMake": 3546,
      "107": 3547,
      "ĠEth": 3548,
      "udden": 3549,
      "Ġval": 3550,
      "Ġlands": 3551,
      "Ġourselves": 3552,
      "ideon": 3553,
      "Ġsinners": 3554,
      "ĠJeph": 3555,
      "ĠRachel": 3556,
      "ivers": 3557,
      "ĠKir": 3558,
      "Ġkeepeth": 3559,
      "Ġentering": 3560,
      "hanan": 3561,
      "Ġimmediately": 3562,
      "Ġharden": 3563,
      "Ġcursed": 3564,
      "Ġdecree": 3565,
      "Ġdivide": 3566,
      "Ġsuffered": 3567,
      "Ġgriev": 3568,
      "Ġmourn": 3569,
      "Ġtrumpets": 3570,
      "sachar": 3571,
      "Ġassembly": 3572,
      "Ġcamels": 3573,
      "Ġrejoiced": 3574,
      "Ġencamp": 3575,
      "Ġsackcloth": 3576,
      "Ġtalents": 3577,
      "ĠGibeah": 3578,
      "62": 3579,
      "Beth": 3580,
      "aw": 3581,
      "bus": 3582,
      "gather": 3583,
      "peace": 3584,
      "pray": 3585,
      "rod": 3586,
      "sanct": 3587,
      "these": 3588,
      "Ġsides": 3589,
      "ises": 3590,
      "eness": 3591,
      "Ġfurn": 3592,
      "onic": 3593,
      "ĠAi": 3594,
      "Ġdun": 3595,
      "another": 3596,
      "iding": 3597,
      "Ġformer": 3598,
      "ĠJames": 3599,
      "Ġmanifest": 3600,
      "Ġgoest": 3601,
      "Ġsell": 3602,
      "alketh": 3603,
      "ĠEz": 3604,
      "Ġdoctrine": 3605,
      "ĠNeth": 3606,
      "Ġconceived": 3607,
      "Ġoverth": 3608,
      "ĠJesse": 3609,
      "Ġsworn": 3610,
      "Ġaccom": 3611,
      "Ġsmoke": 3612,
      "Ġcountenance": 3613,
      "Ġquiet": 3614,
      "Ġsixth": 3615,
      "asseth": 3616,
      "Ġremembrance": 3617,
      "Ġtouched": 3618,
      "ĠCanaanites": 3619,
      "Ġgladness": 3620,
      "Ġshekel": 3621,
      "Ġmourning": 3622,
      "two": 3623,
      "Ġmultiply": 3624,
      "Ġteeth": 3625,
      "Ġmeasured": 3626,
      "answered": 3627,
      "Ġeleven": 3628,
      "Ġcandlest": 3629,
      "vengeance": 3630,
      "Moses": 3631,
      "du": 3632,
      "did": 3633,
      "four": 3634,
      "flesh": 3635,
      "iour": 3636,
      "just": 3637,
      "light": 3638,
      "merc": 3639,
      "nown": 3640,
      "old": 3641,
      "och": 3642,
      "ured": 3643,
      "Ġthick": 3644,
      "Ġsudden": 3645,
      "Ġban": 3646,
      "Ġbright": 3647,
      "Ġfaint": 3648,
      "ĠAre": 3649,
      "ĠAch": 3650,
      "Ġtor": 3651,
      "Ġpestilence": 3652,
      "Ġlions": 3653,
      "set": 3654,
      "ĠLot": 3655,
      "Ġforward": 3656,
      "ament": 3657,
      "Ġeter": 3658,
      "ĠGers": 3659,
      "ĠGibeon": 3660,
      "ales": 3661,
      "Ġstaves": 3662,
      "Ġdost": 3663,
      "eps": 3664,
      "aces": 3665,
      "Ġbreath": 3666,
      "Ġarray": 3667,
      "ĠHebre": 3668,
      "imei": 3669,
      "Ġ33": 3670,
      "Ġrings": 3671,
      "sword": 3672,
      "ĠKohath": 3673,
      "Ġglorious": 3674,
      "Ġmerchan": 3675,
      "Ġbetray": 3676,
      "Ġpurple": 3677,
      "understanding": 3678,
      "Ġwashed": 3679,
      "Ġpillar": 3680,
      "Ġgrie": 3681,
      "Ġcoasts": 3682,
      "Ġsupplic": 3683,
      "Ġfriends": 3684,
      "Ġtarry": 3685,
      "Ġinstruments": 3686,
      ".)": 3687,
      "cy": 3688,
      "iop": 3689,
      "tru": 3690,
      "voice": 3691,
      "wind": 3692,
      "inhabit": 3693,
      "Ġfing": 3694,
      "Ġfur": 3695,
      "Ġfro": 3696,
      "ĠLike": 3697,
      "ĠTim": 3698,
      "Ġelse": 3699,
      "ĠGideon": 3700,
      "Ġspear": 3701,
      "ckon": 3702,
      "Ġdoest": 3703,
      "osom": 3704,
      "ĠPer": 3705,
      "ĠPhil": 3706,
      "Ġabhor": 3707,
      "ittim": 3708,
      "ĠJebus": 3709,
      "ĠAsher": 3710,
      "ignation": 3711,
      "Ġangry": 3712,
      "speak": 3713,
      "ĠKe": 3714,
      "Ġtremb": 3715,
      "ready": 3716,
      "Ġarmies": 3717,
      "ĠShimei": 3718,
      "Ġsubstance": 3719,
      "kingdom": 3720,
      "Ġrepaired": 3721,
      "Ġbelieveth": 3722,
      "secr": 3723,
      "Ġcompassed": 3724,
      "Ġobeyed": 3725,
      "tors": 3726,
      "Ġcreated": 3727,
      "ross": 3728,
      "Ġtalked": 3729,
      "Ġsnare": 3730,
      "Ġjoined": 3731,
      "Ġeternal": 3732,
      ":)": 3733,
      "ahaz": 3734,
      "blood": 3735,
      "done": 3736,
      "given": 3737,
      "joice": 3738,
      "ler": 3739,
      "mine": 3740,
      "poc": 3741,
      "sil": 3742,
      "uff": 3743,
      "Ġage": 3744,
      "took": 3745,
      "Ġbought": 3746,
      "Ġpay": 3747,
      "Ġtidings": 3748,
      "Ġsalt": 3749,
      "Ġashes": 3750,
      "ĠIssachar": 3751,
      "Ġvow": 3752,
      "Ġcommun": 3753,
      "ĠZi": 3754,
      "Ġgoods": 3755,
      "Ġgoodness": 3756,
      "ĠAmaziah": 3757,
      "Ġappoint": 3758,
      "Ġspirits": 3759,
      "echariah": 3760,
      "Ġplead": 3761,
      "ĠBenaiah": 3762,
      "Ġkindness": 3763,
      "Ġpiece": 3764,
      "Ġpalace": 3765,
      "Ġtransgression": 3766,
      "Ġvineyards": 3767,
      "belie": 3768,
      "Ġestablish": 3769,
      "Ġsitteth": 3770,
      "Ġrebuke": 3771,
      "Ġstraightway": 3772,
      "Ġtowns": 3773,
      "ĠZebulun": 3774,
      "dle": 3775,
      "dwell": 3776,
      "fire": 3777,
      "Ġolive": 3778,
      "inter": 3779,
      "Ġwound": 3780,
      "Ġwalketh": 3781,
      "Ġmad": 3782,
      "Ġclo": 3783,
      "Ġdro": 3784,
      "Ġlatter": 3785,
      "seven": 3786,
      "lten": 3787,
      "Ġvail": 3788,
      "Ġoffice": 3789,
      "ĠNab": 3790,
      "ĠCh": 3791,
      "Ġarrows": 3792,
      "ighth": 3793,
      "Ġshoulder": 3794,
      "Ġboards": 3795,
      "ignor": 3796,
      "Ġbelong": 3797,
      "Ġblow": 3798,
      "Ġconfounded": 3799,
      "cont": 3800,
      "Ġprovoke": 3801,
      "Ġtoucheth": 3802,
      "Ġbullocks": 3803,
      "Ġgreen": 3804,
      "ĠMicha": 3805,
      "Ġmultiplied": 3806,
      "Ġbeaten": 3807,
      "Ġweary": 3808,
      "Ġrebell": 3809,
      "Ġendureth": 3810,
      "Behold": 3811,
      "woman": 3812,
      "ĠSarah": 3813,
      "Ġsynagogue": 3814,
      "Ġperform": 3815,
      "Ġsatisfied": 3816,
      "Ġposts": 3817,
      "Ġsuddenly": 3818,
      "61": 3819,
      "64": 3820,
      "As": 3821,
      "car": 3822,
      "cess": 3823,
      "mor": 3824,
      "mah": 3825,
      "pah": 3826,
      "same": 3827,
      "sight": 3828,
      "Ġauth": 3829,
      "toward": 3830,
      "Ġbosom": 3831,
      "oureth": 3832,
      "Ġfount": 3833,
      "Ġcare": 3834,
      "Ġdep": 3835,
      "Ġinno": 3836,
      "sell": 3837,
      "strength": 3838,
      "Ġissue": 3839,
      "ilead": 3840,
      "Ġrecord": 3841,
      "adan": 3842,
      "ĠHitt": 3843,
      "ĠEn": 3844,
      "empt": 3845,
      "ĠNay": 3846,
      "law": 3847,
      "lack": 3848,
      "ĠPh": 3849,
      "Ġheavy": 3850,
      "ĠCarm": 3851,
      "Ġfatherless": 3852,
      "athar": 3853,
      "ĠJudaea": 3854,
      "rank": 3855,
      "Ġdesert": 3856,
      "Ġexp": 3857,
      "Ġcaptives": 3858,
      "Ġuncover": 3859,
      "Ġarmour": 3860,
      "Ġfruits": 3861,
      "Ġwax": 3862,
      "Ġbesought": 3863,
      "stones": 3864,
      "Ġcorners": 3865,
      "Ġstrait": 3866,
      "Ġtransgressions": 3867,
      "Ġforest": 3868,
      "ĠBalak": 3869,
      "Ġmeasures": 3870,
      "cended": 3871,
      "score": 3872,
      "ĠShemaiah": 3873,
      "water": 3874,
      "kindness": 3875,
      "Ġbands": 3876,
      "Ġvirgin": 3877,
      "eshbon": 3878,
      "Ġchanged": 3879,
      "silver": 3880,
      "Ġauthor": 3881,
      "flo": 3882,
      "faith": 3883,
      "gr": 3884,
      "kah": 3885,
      "lar": 3886,
      "mur": 3887,
      "mother": 3888,
      "years": 3889,
      "Ġaven": 3890,
      "inherit": 3891,
      "return": 3892,
      "tood": 3893,
      "Ġbars": 3894,
      "ĠAha": 3895,
      "Ġdried": 3896,
      "Ġpaths": 3897,
      "ley": 3898,
      "ĠJab": 3899,
      "ĠGed": 3900,
      "ĠShil": 3901,
      "ĠHast": 3902,
      "ĠHag": 3903,
      "ĠMes": 3904,
      "erstood": 3905,
      "Ġsayest": 3906,
      "Ġvali": 3907,
      "ĠNaz": 3908,
      "Ġheap": 3909,
      "ĠCale": 3910,
      "Ġbride": 3911,
      "heba": 3912,
      "Ġcove": 3913,
      "ubb": 3914,
      "hronic": 3915,
      "though": 3916,
      "Ġimp": 3917,
      "Ġcovering": 3918,
      "Ġforgotten": 3919,
      "Ġconfess": 3920,
      "Ġconfidence": 3921,
      "Ġdesolation": 3922,
      "Ġjustified": 3923,
      "Ġdrag": 3924,
      "gold": 3925,
      "Ġcompassion": 3926,
      "Ġprophesied": 3927,
      "Ġships": 3928,
      "Ġtender": 3929,
      "priests": 3930,
      "glory": 3931,
      "ĠTyre": 3932,
      "Ġhypoc": 3933,
      "Ġfinished": 3934,
      "Ġdigged": 3935,
      "ĠEthiop": 3936,
      "Ġaccompl": 3937,
      "hronicles": 3938,
      "cons": 3939,
      "lah": 3940,
      "nations": 3941,
      "oketh": 3942,
      "po": 3943,
      "sk": 3944,
      "transg": 3945,
      "would": 3946,
      "Ġvengeance": 3947,
      "Ġair": 3948,
      "inn": 3949,
      "Ġwand": 3950,
      "Ġben": 3951,
      "Ġbri": 3952,
      "Ġmed": 3953,
      "atch": 3954,
      "oram": 3955,
      "edient": 3956,
      "Ġcleave": 3957,
      "Ġded": 3958,
      "Ġinner": 3959,
      "Ġhail": 3960,
      "Ġhapp": 3961,
      "Ġshake": 3962,
      "Ġforn": 3963,
      "Ġsaf": 3964,
      "ĠTurn": 3965,
      "Ġeighth": 3966,
      "entieth": 3967,
      "Ġshort": 3968,
      "high": 3969,
      "Ġspare": 3970,
      "Ġstaff": 3971,
      "Ġsteps": 3972,
      "104": 3973,
      "eman": 3974,
      "ĠCy": 3975,
      "avest": 3976,
      "Ġworketh": 3977,
      "umbled": 3978,
      "Ġseeketh": 3979,
      "ĠRed": 3980,
      "withstanding": 3981,
      "Ġroom": 3982,
      "Ġlawful": 3983,
      "ullam": 3984,
      "fulness": 3985,
      "Ġcanst": 3986,
      "Ġmercies": 3987,
      "Ġstrengthen": 3988,
      "Ġlords": 3989,
      "Ġfollowing": 3990,
      "Ġmolten": 3991,
      "ĠGilgal": 3992,
      "Ġstrife": 3993,
      "Ġpalm": 3994,
      "Ġneedy": 3995,
      "Ġoppressed": 3996,
      "lemn": 3997,
      "Ġindignation": 3998,
      "Ġsitting": 3999,
      "rosy": 4000,
      "Ġhung": 4001,
      "Ġplanted": 4002,
      "delivered": 4003,
      "Ġbask": 4004,
      "Ġdrunk": 4005,
      "Ġleprosy": 4006,
      "fruits": 4007,
      "judgment": 4008,
      "Ġadultery": 4009,
      "Ġmagn": 4010,
      "Ġserpent": 4011,
      "Ġinterpretation": 4012,
      "Ġempty": 4013,
      "Ġgrievous": 4014,
      "ĠCaleb": 4015,
      "af": 4016,
      "bar": 4017,
      "bet": 4018,
      "cham": 4019,
      "mult": 4020,
      "Ġocc": 4021,
      "Ġwounded": 4022,
      "eries": 4023,
      "Ġfi": 4024,
      "Ġfierce": 4025,
      "Ġchronicles": 4026,
      "Ġpasseth": 4027,
      "ĠIth": 4028,
      "Ġhallow": 4029,
      "Ġlau": 4030,
      "Ġshar": 4031,
      "Ġforbid": 4032,
      "amb": 4033,
      "ention": 4034,
      "Ġreach": 4035,
      "adiah": 4036,
      "iff": 4037,
      "holy": 4038,
      "alm": 4039,
      "Ġdoing": 4040,
      "Ġherself": 4041,
      "Ġvo": 4042,
      "istle": 4043,
      "ccording": 4044,
      "Ġ37": 4045,
      "Ġ39": 4046,
      "ĠZechariah": 4047,
      "Ġboast": 4048,
      "aughters": 4049,
      "Ġmerciful": 4050,
      "Ġpreserve": 4051,
      "Ġharlot": 4052,
      "Ġstrengthened": 4053,
      "Ġcourse": 4054,
      "Ġborders": 4055,
      "Ġafflict": 4056,
      "commandments": 4057,
      "Ġdeclared": 4058,
      "Ġresurrection": 4059,
      "Ġtravail": 4060,
      "Ġporch": 4061,
      "Ġshepherds": 4062,
      "ĠMerari": 4063,
      "Ġpurpose": 4064,
      "Ġunderstood": 4065,
      "written": 4066,
      "Ġcrucified": 4067,
      "soul": 4068,
      "Ġauthority": 4069,
      "71": 4070,
      "73": 4071,
      "bl": 4072,
      "can": 4073,
      "daughters": 4074,
      "fast": 4075,
      "fell": 4076,
      "ges": 4077,
      "rings": 4078,
      "sin": 4079,
      "Ġsim": 4080,
      "Ġhorn": 4081,
      "ency": 4082,
      "Ġfly": 4083,
      "Ġcaught": 4084,
      "Ġdivers": 4085,
      "eag": 4086,
      "Ġleast": 4087,
      "idue": 4088,
      "ĠLeah": 4089,
      "ĠGath": 4090,
      "keep": 4091,
      "ilah": 4092,
      "Ġresp": 4093,
      "Ġgoat": 4094,
      "ĠHor": 4095,
      "ĠHigh": 4096,
      "ĠMatt": 4097,
      "ersheba": 4098,
      "Ġhearing": 4099,
      "ĠOh": 4100,
      "unning": 4101,
      "Ġproceed": 4102,
      "aking": 4103,
      "Ġletter": 4104,
      "Ġknowing": 4105,
      "Ġbold": 4106,
      "Ġchan": 4107,
      "Ġchains": 4108,
      "Ġroar": 4109,
      "Ġperver": 4110,
      "Ġdisplea": 4111,
      "spirit": 4112,
      "Ġwouldest": 4113,
      "ĠSamson": 4114,
      "Ġscorn": 4115,
      "Ġtemp": 4116,
      "Ġplease": 4117,
      "Ġwaxed": 4118,
      "Ġkindred": 4119,
      "Ġcleansed": 4120,
      "Ġfools": 4121,
      "hands": 4122,
      "Ġordained": 4123,
      "ĠAdon": 4124,
      "Then": 4125,
      "ĠSeir": 4126,
      "Ġstreet": 4127,
      "Ġbondage": 4128,
      "Ġoblation": 4129,
      "Ġrising": 4130,
      "ĠJehoiakim": 4131,
      "Ġexceedingly": 4132,
      "venture": 4133,
      "ilkiah": 4134,
      "Ġrevealed": 4135,
      "ourable": 4136,
      "disc": 4137,
      "Ġdrunken": 4138,
      "Ġwonder": 4139,
      "Ġadversaries": 4140,
      "Ġdistress": 4141,
      "Ġquickly": 4142,
      "Ġdiligently": 4143,
      "Ġmirac": 4144,
      "ĠSihon": 4145,
      "Ġpursued": 4146,
      "Ġlamps": 4147,
      "ĠSinai": 4148,
      "iniquity": 4149,
      "Ġgrieved": 4150,
      "Babylon": 4151,
      "aj": 4152,
      "aren": 4153,
      "coun": 4154,
      "dead": 4155,
      "gran": 4156,
      "iers": 4157,
      "kam": 4158,
      "mouth": 4159,
      "none": 4160,
      "oah": 4161,
      "phan": 4162,
      "ses": 4163,
      "taken": 4164,
      "Ġignor": 4165,
      "Ġsor": 4166,
      "Ġhire": 4167,
      "Ġhired": 4168,
      "era": 4169,
      "ereas": 4170,
      "Ġuse": 4171,
      "Ġduke": 4172,
      "Ġinf": 4173,
      "lew": 4174,
      "irt": 4175,
      "Ġeither": 4176,
      "adventure": 4177,
      "ĠHeshbon": 4178,
      "ĠHilkiah": 4179,
      "hib": 4180,
      "ĠEp": 4181,
      "ĠOur": 4182,
      "ĠDid": 4183,
      "beg": 4184,
      "ĠWhom": 4185,
      "Ġlooketh": 4186,
      "Ġholiness": 4187,
      "Ġbreach": 4188,
      "Ġoverlaid": 4189,
      "omegran": 4190,
      "Ġwhereby": 4191,
      "Ġbroad": 4192,
      "Ġremove": 4193,
      "ĠKad": 4194,
      "Ġ40": 4195,
      "Ġfourscore": 4196,
      "Ġdiscover": 4197,
      "Ġuncircumcised": 4198,
      "Ġincl": 4199,
      "hilistine": 4200,
      "Ġharp": 4201,
      "heard": 4202,
      "Ġcontinue": 4203,
      "Ġremaineth": 4204,
      "Ġtongues": 4205,
      "Ġinstead": 4206,
      "Ġsingers": 4207,
      "Ġpersu": 4208,
      "words": 4209,
      "Ġappearance": 4210,
      "throughout": 4211,
      "ĠRamah": 4212,
      "ĠAhaziah": 4213,
      "Ġninth": 4214,
      "covenant": 4215,
      "incense": 4216,
      "Ġmeans": 4217,
      "Ġrestore": 4218,
      "sacrifice": 4219,
      "Ġvalour": 4220,
      "inhabitants": 4221,
      "Ġinnocent": 4222,
      "inheritance": 4223,
      "Sam": 4224,
      "both": 4225,
      "cubit": 4226,
      "death": 4227,
      "eel": 4228,
      "face": 4229,
      "known": 4230,
      "num": 4231,
      "pet": 4232,
      "rite": 4233,
      "ti": 4234,
      "Ġeag": 4235,
      "Ġbus": 4236,
      "Ġfil": 4237,
      "Ġfenced": 4238,
      "Ġcircumcision": 4239,
      "Ġceased": 4240,
      "ĠAra": 4241,
      "ĠAccording": 4242,
      "Ġnought": 4243,
      "Ġtears": 4244,
      "asha": 4245,
      "race": 4246,
      "ĠJed": 4247,
      "Ġreed": 4248,
      "Ġstay": 4249,
      "109": 4250,
      "Ġsolemn": 4251,
      "Ġconsecr": 4252,
      "Ġliber": 4253,
      "Ġletters": 4254,
      "Ġdew": 4255,
      "ĠJudas": 4256,
      "ĠJew": 4257,
      "icing": 4258,
      "Ġtruly": 4259,
      "Ġ41": 4260,
      "Ġwrong": 4261,
      "Ġwriting": 4262,
      "Ġcounted": 4263,
      "many": 4264,
      "suff": 4265,
      "Ġconcub": 4266,
      "Ġuncleanness": 4267,
      "stood": 4268,
      "ealth": 4269,
      "Ġprovoked": 4270,
      "Ġdefile": 4271,
      "Ġministered": 4272,
      "Ġinstruction": 4273,
      "Ġrefused": 4274,
      "ĠAdam": 4275,
      "Ġdespise": 4276,
      "ĠOnly": 4277,
      "Ġassembled": 4278,
      "Ġweeping": 4279,
      "reshing": 4280,
      "Ġlikeness": 4281,
      "ĠKirj": 4282,
      "Ġencamped": 4283,
      "ĠPhilip": 4284,
      "ĠCarmel": 4285,
      "cl": 4286,
      "cience": 4287,
      "dec": 4288,
      "ected": 4289,
      "gilead": 4290,
      "hort": 4291,
      "kings": 4292,
      "mar": 4293,
      "nest": 4294,
      "pres": 4295,
      "sea": 4296,
      "tten": 4297,
      "xes": 4298,
      "thah": 4299,
      "Ġsown": 4300,
      "Ġwave": 4301,
      "erus": 4302,
      "rezzar": 4303,
      "tous": 4304,
      "Ġmales": 4305,
      "Ġcave": 4306,
      "Ġcunning": 4307,
      "Ġwither": 4308,
      "ĠLest": 4309,
      "Ġmembers": 4310,
      "Ġreckon": 4311,
      "ĠBa": 4312,
      "ĠBo": 4313,
      "Ġanc": 4314,
      "esty": 4315,
      "Ġtherewith": 4316,
      "ĠMe": 4317,
      "ours": 4318,
      "abas": 4319,
      "ĠObed": 4320,
      "ĠPro": 4321,
      "ĠPers": 4322,
      "Ġtwentieth": 4323,
      "reated": 4324,
      "Ġlost": 4325,
      "ishon": 4326,
      "akes": 4327,
      "ĠAsaph": 4328,
      "Ġfirstfruits": 4329,
      "Ġgrapes": 4330,
      "Ġsacrificed": 4331,
      "suerus": 4332,
      "Ġflame": 4333,
      "ship": 4334,
      "Ġpossessed": 4335,
      "Ġeastward": 4336,
      "Ġstatute": 4337,
      "Ġwaited": 4338,
      "ĠHamath": 4339,
      "Ġtreasure": 4340,
      "mayed": 4341,
      "Ġgirdle": 4342,
      "Ġrequire": 4343,
      "ourage": 4344,
      "Ġporters": 4345,
      "flow": 4346,
      "Ġherds": 4347,
      "Ġprevailed": 4348,
      "Ġpolluted": 4349,
      "unclean": 4350,
      "Ġpluck": 4351,
      "Ġephah": 4352,
      "Ġwhoredoms": 4353,
      "Ġhardened": 4354,
      "Ġcandlestick": 4355,
      "Ġvaliant": 4356,
      "Ġlaugh": 4357,
      "Ġrespect": 4358,
      "altar": 4359,
      "drink": 4360,
      "daughter": 4361,
      "iar": 4362,
      "mined": 4363,
      "pers": 4364,
      "Ġhot": 4365,
      "rep": 4366,
      "enem": 4367,
      "onoun": 4368,
      "Ġgavest": 4369,
      "Ġtim": 4370,
      "Ġfort": 4371,
      "asen": 4372,
      "Ġsakes": 4373,
      "irl": 4374,
      "irth": 4375,
      "Ġev": 4376,
      "raw": 4377,
      "ĠGe": 4378,
      "ĠGet": 4379,
      "iling": 4380,
      "ault": 4381,
      "ĠMed": 4382,
      "ĠIsaiah": 4383,
      "Ġspices": 4384,
      "ops": 4385,
      "118": 4386,
      "bekah": 4387,
      "erved": 4388,
      "Ġloving": 4389,
      "Ġloaves": 4390,
      "Ġpronoun": 4391,
      "Ġdeceived": 4392,
      "ĠAbisha": 4393,
      "Ġfolly": 4394,
      "Ġperceived": 4395,
      "Ġsealed": 4396,
      "ĠKen": 4397,
      "Ġappro": 4398,
      "Ġtremble": 4399,
      "ĠWhoso": 4400,
      "ernacles": 4401,
      "Ġcauseth": 4402,
      "Ġsilence": 4403,
      "Ġfruitful": 4404,
      "Ġinhabited": 4405,
      "Ġbesie": 4406,
      "Ġpitch": 4407,
      "etermined": 4408,
      "Ġsabbaths": 4409,
      "Ġprofane": 4410,
      "Ġcomforted": 4411,
      "Ġresidue": 4412,
      "Ġjourneyed": 4413,
      "Ġtestimonies": 4414,
      "Ġbranch": 4415,
      "ĠMicah": 4416,
      "Ġseparated": 4417,
      "Ġbarley": 4418,
      "Ġmurder": 4419,
      "Ġsojourn": 4420,
      "Ġprice": 4421,
      "osheth": 4422,
      "Ġdoub": 4423,
      "Ġerr": 4424,
      "Ġexcellent": 4425,
      "Ġawake": 4426,
      "Ġastonished": 4427,
      "Ġproclaim": 4428,
      "ĠCaesar": 4429,
      "Ġscripture": 4430,
      "reigned": 4431,
      "Ġsupplication": 4432,
      "Lev": 4433,
      "certain": 4434,
      "depart": 4435,
      "dark": 4436,
      "fil": 4437,
      "gre": 4438,
      "hud": 4439,
      "nabas": 4440,
      "ock": 4441,
      "par": 4442,
      "rates": 4443,
      "sl": 4444,
      "sub": 4445,
      "Ġhind": 4446,
      "erah": 4447,
      "top": 4448,
      "Ġbad": 4449,
      "issed": 4450,
      "eneth": 4451,
      "Ġfed": 4452,
      "Ġcord": 4453,
      "Ġcircumcised": 4454,
      "onia": 4455,
      "Ġdue": 4456,
      "ani": 4457,
      "anger": 4458,
      "Ġless": 4459,
      "stra": 4460,
      "Ġgain": 4461,
      "Ġheat": 4462,
      "ĠLamb": 4463,
      "Ġtast": 4464,
      "Ġsand": 4465,
      "Ġequ": 4466,
      "Ġwithal": 4467,
      "ĠSham": 4468,
      "Ġmemor": 4469,
      "Ġrecover": 4470,
      "Ġshine": 4471,
      "ĠHere": 4472,
      "ĠMar": 4473,
      "Ġspot": 4474,
      "oph": 4475,
      "102": 4476,
      "abel": 4477,
      "Ġalong": 4478,
      "Ġvows": 4479,
      "ĠPut": 4480,
      "ĠPhilistine": 4481,
      "ĠCursed": 4482,
      "aviour": 4483,
      "Ġprove": 4484,
      "akers": 4485,
      "Ġsuck": 4486,
      "Ġdeceive": 4487,
      "Ġdeeds": 4488,
      "iple": 4489,
      "Ġroll": 4490,
      "Ġturneth": 4491,
      "Ġgracious": 4492,
      "Ġyounger": 4493,
      "Ġconsid": 4494,
      "Ġimag": 4495,
      "Ġbowels": 4496,
      "Ġinhabitant": 4497,
      "Ġclay": 4498,
      "ĠSheba": 4499,
      "Ġcleanse": 4500,
      "Ġbodies": 4501,
      "Ġreceiveth": 4502,
      "Ġborne": 4503,
      "Ġcorner": 4504,
      "Ġtrusted": 4505,
      "Ġfeasts": 4506,
      "ĠHearken": 4507,
      "Ġpalaces": 4508,
      "Ġchurches": 4509,
      "Ġgirded": 4510,
      "prophes": 4511,
      "desol": 4512,
      "Ġfowl": 4513,
      "Ġrebelled": 4514,
      "concerning": 4515,
      "families": 4516,
      "Ġlearn": 4517,
      "Ġpubl": 4518,
      "Ġcurtains": 4519,
      "Ġjealousy": 4520,
      "Ġpatience": 4521,
      "Ġcreeping": 4522,
      "Ġmerchants": 4523,
      "ĠLikewise": 4524,
      "Ġrebellious": 4525,
      "Ġfornication": 4526,
      "irlwind": 4527,
      "Ġmemorial": 4528,
      "72": 4529,
      "74": 4530,
      "Ben": 4531,
      "Eph": 4532,
      "Eli": 4533,
      "cust": 4534,
      "chan": 4535,
      "char": 4536,
      "field": 4537,
      "pha": 4538,
      "part": 4539,
      "press": 4540,
      "power": 4541,
      "salt": 4542,
      "tles": 4543,
      "ware": 4544,
      "yal": 4545,
      "those": 4546,
      "Ġhan": 4547,
      "Ġwoe": 4548,
      "erry": 4549,
      "Ġcus": 4550,
      "Ġdieth": 4551,
      "Ġpain": 4552,
      "Ġpity": 4553,
      "Ġnat": 4554,
      "anah": 4555,
      "stran": 4556,
      "Ġungod": 4557,
      "Ġformed": 4558,
      "ĠTars": 4559,
      "ĠJoram": 4560,
      "Ġupper": 4561,
      "usion": 4562,
      "ĠHav": 4563,
      "Ġseest": 4564,
      "Ġspeed": 4565,
      "ĠWill": 4566,
      "ĠWilt": 4567,
      "Ġherit": 4568,
      "oks": 4569,
      "ĠNun": 4570,
      "Ġabideth": 4571,
      "Ġknees": 4572,
      "asters": 4573,
      "love": 4574,
      "aced": 4575,
      "Ġloosed": 4576,
      "Ġbrasen": 4577,
      "ĠBeersheba": 4578,
      "ĠJeshua": 4579,
      "Ġputteth": 4580,
      "ulation": 4581,
      "arel": 4582,
      "Ġroyal": 4583,
      "Ġanswering": 4584,
      "kened": 4585,
      "Ġprecept": 4586,
      "Ġdismayed": 4587,
      "Ġ44": 4588,
      "Ġstandeth": 4589,
      "Ġarmed": 4590,
      "ĠUp": 4591,
      "Ġquest": 4592,
      "Ġbuilding": 4593,
      "Ġchose": 4594,
      "served": 4595,
      "sgiving": 4596,
      "conf": 4597,
      "Ġtestify": 4598,
      "plate": 4599,
      "Ġterror": 4600,
      "Ġsoldiers": 4601,
      "Ġmessenger": 4602,
      "Ġtarried": 4603,
      "Ġenquired": 4604,
      "Ġcalf": 4605,
      "Jeho": 4606,
      "Ġhateth": 4607,
      "Ġfetch": 4608,
      "Ġrecompen": 4609,
      "Ġtribute": 4610,
      "Ġcarcase": 4611,
      "ĠWhile": 4612,
      "ĠJephthah": 4613,
      "ĠGershon": 4614,
      "Ġdepth": 4615,
      "ĠAhasuerus": 4616,
      "ajesty": 4617,
      "petual": 4618,
      "Ġhanged": 4619,
      "gu": 4620,
      "ging": 4621,
      "gro": 4622,
      "ius": 4623,
      "joy": 4624,
      "life": 4625,
      "pur": 4626,
      "wit": 4627,
      "whi": 4628,
      "year": 4629,
      "Ġast": 4630,
      "ination": 4631,
      "inketh": 4632,
      "Ġbid": 4633,
      "Ġmerry": 4634,
      "Ġcross": 4635,
      "Ġdumb": 4636,
      "ited": 4637,
      "Ġline": 4638,
      "stat": 4639,
      "stri": 4640,
      "ĠLib": 4641,
      "Ġnobles": 4642,
      "left": 4643,
      "ĠTell": 4644,
      "Ġmeek": 4645,
      "Ġrender": 4646,
      "Ġcomest": 4647,
      "Ġshittim": 4648,
      "ĠHos": 4649,
      "ĠMach": 4650,
      "Ġspring": 4651,
      "Ġstayed": 4652,
      "ĠEx": 4653,
      "udent": 4654,
      "Ġweek": 4655,
      "136": 4656,
      "Ġalready": 4657,
      "Ġheave": 4658,
      "ĠCon": 4659,
      "ĠCall": 4660,
      "until": 4661,
      "unuch": 4662,
      "Ġwholly": 4663,
      "Ġconsp": 4664,
      "Ġgreatness": 4665,
      "Ġstore": 4666,
      "new": 4667,
      "Ġenough": 4668,
      "Ġexhort": 4669,
      "ĠKed": 4670,
      "prov": 4671,
      "ĠLevite": 4672,
      "Ġwalking": 4673,
      "Ġcontent": 4674,
      "ĠUriah": 4675,
      "hadad": 4676,
      "Ġsubj": 4677,
      "ĠElis": 4678,
      "ĠElam": 4679,
      "ĠShaphan": 4680,
      "Ġwindows": 4681,
      "Ġhonourable": 4682,
      "Ġdrawn": 4683,
      "Ġmarried": 4684,
      "salvation": 4685,
      "build": 4686,
      "Ġcontinued": 4687,
      "Ġcontinual": 4688,
      "fold": 4689,
      "Ġgrew": 4690,
      "Ġabundantly": 4691,
      "prophet": 4692,
      "princes": 4693,
      "Ġpraises": 4694,
      "Ġexecute": 4695,
      "rodden": 4696,
      "Ġfurnace": 4697,
      "Ġfurther": 4698,
      "transgress": 4699,
      "Ġbusiness": 4700,
      "Ġlovingkindness": 4701,
      "Ġheritage": 4702,
      "Pha": 4703,
      "ix": 4704,
      "mour": 4705,
      "rites": 4706,
      "some": 4707,
      "uiah": 4708,
      "Ġz": 4709,
      "Ġthief": 4710,
      "Ġthreshing": 4711,
      "Ġhumbled": 4712,
      "Ġmention": 4713,
      "Ġcla": 4714,
      "ĠAg": 4715,
      "ĠAho": 4716,
      "Ġwhirlwind": 4717,
      "Ġgall": 4718,
      "Ġheir": 4719,
      "Ġtrodden": 4720,
      "Ġforso": 4721,
      "ĠTir": 4722,
      "Ġeunuch": 4723,
      "rieth": 4724,
      "ĠGom": 4725,
      "ilty": 4726,
      "ĠSing": 4727,
      "ĠBook": 4728,
      "ushan": 4729,
      "ĠHus": 4730,
      "ĠMen": 4731,
      "ĠMine": 4732,
      "Ġspace": 4733,
      "ĠEsh": 4734,
      "Ġsayings": 4735,
      "ĠNer": 4736,
      "Ġatt": 4737,
      "Ġloose": 4738,
      "Ġlocust": 4739,
      "Ġlives": 4740,
      "ishment": 4741,
      "Ġprover": 4742,
      "aker": 4743,
      "akest": 4744,
      "Ġaccount": 4745,
      "ĠZidon": 4746,
      "Ġcalleth": 4747,
      "Ġgoodly": 4748,
      "Ġeating": 4749,
      "ipal": 4750,
      "icated": 4751,
      "eba": 4752,
      "Ġtabernacles": 4753,
      "Ġtreacher": 4754,
      "Ġspiritual": 4755,
      "Ġrejected": 4756,
      "ĠRebekah": 4757,
      "Ġadv": 4758,
      "Ġwheels": 4759,
      "shem": 4760,
      "Ġreport": 4761,
      "Ġcrying": 4762,
      "aseiah": 4763,
      "Ġfindeth": 4764,
      "Ġuttermost": 4765,
      "ĠJohanan": 4766,
      "Ġtransgressed": 4767,
      "places": 4768,
      "commandment": 4769,
      "Ġobtained": 4770,
      "Ġeighteen": 4771,
      "Ġgrant": 4772,
      "ĠShallum": 4773,
      "ĠHananiah": 4774,
      "prophets": 4775,
      "bearer": 4776,
      "Ġbreasts": 4777,
      "ĠAbiathar": 4778,
      "ĠNotwithstanding": 4779,
      "mountains": 4780,
      "Ġthanksgiving": 4781,
      "Ġpunishment": 4782,
      "country": 4783,
      "Ġfinger": 4784,
      "Ġfountain": 4785,
      "Ġhungry": 4786,
      "cubits": 4787,
      "acedonia": 4788,
      "Ġforsook": 4789,
      "bod": 4790,
      "cil": 4791,
      "def": 4792,
      "iam": 4793,
      "mid": 4794,
      "ug": 4795,
      "use": 4796,
      "ura": 4797,
      "uph": 4798,
      "wo": 4799,
      "youn": 4800,
      "Ġoint": 4801,
      "eroth": 4802,
      "Ġcra": 4803,
      "half": 4804,
      "Ġdetermined": 4805,
      "Ġpsalt": 4806,
      "Ġforbear": 4807,
      "leep": 4808,
      "ariah": 4809,
      "owers": 4810,
      "rac": 4811,
      "rain": 4812,
      "ĠGaz": 4813,
      "Ġkins": 4814,
      "ĠSer": 4815,
      "ĠBu": 4816,
      "aded": 4817,
      "ĠHur": 4818,
      "hip": 4819,
      "inehas": 4820,
      "Ġstub": 4821,
      "abad": 4822,
      "139": 4823,
      "Ġaltogether": 4824,
      "ĠOut": 4825,
      "ĠDari": 4826,
      "ĠNah": 4827,
      "ĠNaam": 4828,
      "Ġconv": 4829,
      "vessel": 4830,
      "Ġcoals": 4831,
      "Ġrobe": 4832,
      "spoken": 4833,
      "ĠKorah": 4834,
      "roward": 4835,
      "otham": 4836,
      "Ġdisciple": 4837,
      "Ġlooking": 4838,
      "yrian": 4839,
      "Ġpool": 4840,
      "itudes": 4841,
      "Ġarms": 4842,
      "ĠRejoice": 4843,
      "ewels": 4844,
      "Ġcertainly": 4845,
      "izz": 4846,
      "eshullam": 4847,
      "Ġprovinces": 4848,
      "Ġtouching": 4849,
      "hosts": 4850,
      "Ġguilty": 4851,
      "Ġgrief": 4852,
      "Ġrepented": 4853,
      "ocation": 4854,
      "Ġseparate": 4855,
      "Ġcamest": 4856,
      "Ġgovern": 4857,
      "Ġrefuse": 4858,
      "ĠZeruiah": 4859,
      "Ġbreastplate": 4860,
      "destroyed": 4861,
      "Ġmaking": 4862,
      "Ġdouble": 4863,
      "Ġhenceforth": 4864,
      "gathered": 4865,
      "Ġdung": 4866,
      "ĠEzra": 4867,
      "ĠJebusites": 4868,
      "ĠGedaliah": 4869,
      "ĠShiloh": 4870,
      "Ġcovetous": 4871,
      "Ġbeneath": 4872,
      "Ġsharp": 4873,
      "Ġdispleased": 4874,
      "ĠAdonijah": 4875,
      "ĠBaasha": 4876,
      "ĠPersia": 4877,
      "enemies": 4878,
      "Levites": 4879,
      "Ġungodly": 4880,
      "ĠDarius": 4881,
      "77": 4882,
      "94": 4883,
      "Can": 4884,
      "Father": 4885,
      "ares": 4886,
      "beast": 4887,
      "dev": 4888,
      "ez": 4889,
      "gave": 4890,
      "how": 4891,
      "hish": 4892,
      "kron": 4893,
      "ni": 4894,
      "othe": 4895,
      "post": 4896,
      "rary": 4897,
      "wors": 4898,
      "Ġthigh": 4899,
      "Ġthunder": 4900,
      "Ġsnow": 4901,
      "Ġward": 4902,
      "Ġwaves": 4903,
      "receive": 4904,
      "Ġbest": 4905,
      "llous": 4906,
      "Ġmelt": 4907,
      "enn": 4908,
      "orrupt": 4909,
      "Ġcourage": 4910,
      "Ġpomegran": 4911,
      "Ġle": 4912,
      "Ġgiving": 4913,
      "Ġtith": 4914,
      "Ġform": 4915,
      "ases": 4916,
      "asion": 4917,
      "ĠTamar": 4918,
      "ĠJotham": 4919,
      "ĠShim": 4920,
      "Ġgoings": 4921,
      "ĠMaac": 4922,
      "Ġspo": 4923,
      "Ġsteal": 4924,
      "abomin": 4925,
      "cknow": 4926,
      "emale": 4927,
      "ĠOph": 4928,
      "iezer": 4929,
      "ĠDeb": 4930,
      "ĠDoth": 4931,
      "ĠPar": 4932,
      "ĠPeace": 4933,
      "Ġabound": 4934,
      "ĠCain": 4935,
      "been": 4936,
      "Ġworse": 4937,
      "Ġcommon": 4938,
      "Ġwhereon": 4939,
      "Ġworkers": 4940,
      "Ġmoreover": 4941,
      "ĠEgyptian": 4942,
      "Ġenlar": 4943,
      "Ġrobb": 4944,
      "achish": 4945,
      "Ġsmell": 4946,
      "Ġglorify": 4947,
      "Ġapparel": 4948,
      "ĠWhose": 4949,
      "Ġplains": 4950,
      "prof": 4951,
      "Ġfalleth": 4952,
      "ossible": 4953,
      "Ġquen": 4954,
      "Ġbald": 4955,
      "Ġbacks": 4956,
      "ashion": 4957,
      "Ġmock": 4958,
      "Ġcourts": 4959,
      "Ġjoyful": 4960,
      "Ġcounsell": 4961,
      "Ġminist": 4962,
      "Ġestim": 4963,
      "Ġjustice": 4964,
      "works": 4965,
      "peh": 4966,
      "follow": 4967,
      "ĠBaruch": 4968,
      "Ġrequest": 4969,
      "Ġwidows": 4970,
      "Ġrebuked": 4971,
      "Ġoppression": 4972,
      "ĠUzziah": 4973,
      "Ġninety": 4974,
      "Ġseemeth": 4975,
      "Ġcondemn": 4976,
      "burnt": 4977,
      "Ġsprinkle": 4978,
      "Ġlusts": 4979,
      "Ġordinance": 4980,
      "generation": 4981,
      "Ġlanguage": 4982,
      "Ġsummer": 4983,
      "sanctuary": 4984,
      "mercy": 4985,
      "ĠHebrew": 4986,
      "contin": 4987,
      "ĠPhinehas": 4988,
      "between": 4989,
      "disciples": 4990,
      "Ġmiracles": 4991,
      "Ġeagle": 4992,
      "ĠKirjath": 4993,
      "darkness": 4994,
      "Ġcords": 4995,
      "groom": 4996,
      "shemesh": 4997,
      "Canaan": 4998,
      "80": 4999,
      "Neb": 5000,
      "ahath": 5001,
      "bow": 5002,
      "len": 5003,
      "lord": 5004,
      "lings": 5005,
      "lie": 5006,
      "pill": 5007,
      "rim": 5008,
      "trou": 5009,
      "wall": 5010,
      "whe": 5011,
      "ys": 5012,
      "Ġbough": 5013,
      "Ġblack": 5014,
      "Ġmajesty": 5015,
      "ism": 5016,
      "enea": 5017,
      "Ġfame": 5018,
      "Ġfault": 5019,
      "Ġfroward": 5020,
      "edfast": 5021,
      "Ġcakes": 5022,
      "onite": 5023,
      "Ġdim": 5024,
      "Ġpath": 5025,
      "ĠIm": 5026,
      "Ġlots": 5027,
      "child": 5028,
      "riel": 5029,
      "ĠSis": 5030,
      "ĠSil": 5031,
      "ĠSaviour": 5032,
      "Ġrelea": 5033,
      "Ġmyst": 5034,
      "ĠHath": 5035,
      "ĠMah": 5036,
      "ĠMeshullam": 5037,
      "oft": 5038,
      "rous": 5039,
      "103": 5040,
      "ĠForasmuch": 5041,
      "ĠDeliver": 5042,
      "ĠPe": 5043,
      "Ġlose": 5044,
      "Ġoverflow": 5045,
      "Ġprolong": 5046,
      "Ġbrim": 5047,
      "Ġcoat": 5048,
      "Ġswift": 5049,
      "neighbour": 5050,
      "ĠRep": 5051,
      "ubile": 5052,
      "fection": 5053,
      "ĠAmnon": 5054,
      "Ġseas": 5055,
      "ĠYour": 5056,
      "Ġfourteen": 5057,
      "ebel": 5058,
      "Ġfoundations": 5059,
      "Ġprinc": 5060,
      "Ġconscience": 5061,
      "manner": 5062,
      "Ġbowls": 5063,
      "Ġleaven": 5064,
      "ĠBenhadad": 5065,
      "Ġpursue": 5066,
      "Ġcharity": 5067,
      "Ġconfusion": 5068,
      "Ġcouncil": 5069,
      "Ġabominable": 5070,
      "world": 5071,
      "ĠNebat": 5072,
      "Ġapart": 5073,
      "Ġwhithersoever": 5074,
      "horam": 5075,
      "Ġbonds": 5076,
      "ĠBarnabas": 5077,
      "Ġrunning": 5078,
      "Ġcreature": 5079,
      "Ġhunger": 5080,
      "ĠNebuchadrezzar": 5081,
      "Ġfigs": 5082,
      "Ġcalam": 5083,
      "Ġaccepted": 5084,
      "Ġfishes": 5085,
      "Ġrejoicing": 5086,
      "Ġgroves": 5087,
      "Ġtempted": 5088,
      "Ġpraised": 5089,
      "Ġshields": 5090,
      "ĠAshd": 5091,
      "Ġanointing": 5092,
      "minister": 5093,
      "Ġwillingly": 5094,
      "eemed": 5095,
      "Ġsprinkled": 5096,
      "elfth": 5097,
      "Ġbirds": 5098,
      "Ġlodge": 5099,
      "Ġweap": 5100,
      "Ġswallowed": 5101,
      "temple": 5102,
      "floor": 5103,
      "ĠNazareth": 5104,
      "Ġvoid": 5105,
      "ĠBoaz": 5106,
      "ĠAbishai": 5107,
      "Ephraim": 5108,
      "ĠTarshish": 5109,
      "young": 5110,
      "enealo": 5111,
      "Jacob": 5112,
      "Joseph": 5113,
      "Jordan": 5114,
      "aaz": 5115,
      "ca": 5116,
      "gate": 5117,
      "mo": 5118,
      "vi": 5119,
      "wisdom": 5120,
      "zah": 5121,
      "tha": 5122,
      "inst": 5123,
      "Ġwealth": 5124,
      "repro": 5125,
      "received": 5126,
      "tong": 5127,
      "Ġblew": 5128,
      "Ġfir": 5129,
      "Ġfirm": 5130,
      "edom": 5131,
      "Ġcol": 5132,
      "omi": 5133,
      "oment": 5134,
      "seed": 5135,
      "ĠLa": 5136,
      "ĠLook": 5137,
      "Ġsad": 5138,
      "ĠTH": 5139,
      "Ġisles": 5140,
      "ĠThine": 5141,
      "riage": 5142,
      "ĠGree": 5143,
      "ĠShu": 5144,
      "ĠSend": 5145,
      "Ġreconc": 5146,
      "roth": 5147,
      "ĠHiv": 5148,
      "hood": 5149,
      "ĠEkron": 5150,
      "Ġdogs": 5151,
      "135": 5152,
      "145": 5153,
      "Ġhadst": 5154,
      "ĠOb": 5155,
      "Ġamaz": 5156,
      "ĠCom": 5157,
      "being": 5158,
      "Ġtwelfth": 5159,
      "Ġwhoso": 5160,
      "ctual": 5161,
      "Ġlovers": 5162,
      "Ġprudent": 5163,
      "umult": 5164,
      "Ġplagues": 5165,
      "itteth": 5166,
      "Ġlack": 5167,
      "ighed": 5168,
      "Ġcalling": 5169,
      "ĠRabb": 5170,
      "ureth": 5171,
      "Ġheavenly": 5172,
      "Ġrocks": 5173,
      "icians": 5174,
      "Ġbegotten": 5175,
      "Ġperceive": 5176,
      "Ġperpetual": 5177,
      "Ġhundreds": 5178,
      "ĠAmas": 5179,
      "Ġprayers": 5180,
      "Ġfourteenth": 5181,
      "Ġwickedly": 5182,
      "othing": 5183,
      "Ġswords": 5184,
      "thyself": 5185,
      "ekah": 5186,
      "Ġfifteen": 5187,
      "Ġcovereth": 5188,
      "Ġsomewhat": 5189,
      "ĠElk": 5190,
      "handise": 5191,
      "Ġtestified": 5192,
      "Ġteaching": 5193,
      "Ġsouthward": 5194,
      "Ġministers": 5195,
      "Ġvalleys": 5196,
      "ablish": 5197,
      "That": 5198,
      "yourselves": 5199,
      "Ġbeareth": 5200,
      "Ġstream": 5201,
      "Ġsorrows": 5202,
      "chari": 5203,
      "Ġrepentance": 5204,
      "whose": 5205,
      "Ġwestward": 5206,
      "Ġseparation": 5207,
      "ĠMaaseiah": 5208,
      "ĠTyrus": 5209,
      "ĠMidianites": 5210,
      "Ġsynagogues": 5211,
      "tribe": 5212,
      "Ġmakest": 5213,
      "Ġvex": 5214,
      "Ġvexed": 5215,
      "possession": 5216,
      "Ġpublic": 5217,
      "ĠMizpeh": 5218,
      "ĠAmalekites": 5219,
      "Ġordinances": 5220,
      "Ġoffended": 5221,
      "Ġswallow": 5222,
      "Ġtrembling": 5223,
      "ubbabel": 5224,
      "Ġaccomplished": 5225,
      "Ġdedicated": 5226,
      "ĠCyrus": 5227,
      "Ġbasket": 5228,
      "chamber": 5229,
      "Ġliberty": 5230,
      "Ġancient": 5231,
      "departed": 5232,
      "Ġequal": 5233,
      "witness": 5234,
      "Pharaoh": 5235,
      "midst": 5236,
      "Ġointment": 5237,
      "Ġtithes": 5238,
      "But": 5239,
      "Re": 5240,
      "bless": 5241,
      "cea": 5242,
      "corn": 5243,
      "eble": 5244,
      "fts": 5245,
      "kk": 5246,
      "pie": 5247,
      "sign": 5248,
      "vis": 5249,
      "valley": 5250,
      "yet": 5251,
      "Ġhin": 5252,
      "Ġhumble": 5253,
      "Ġoak": 5254,
      "Ġorac": 5255,
      "erity": 5256,
      "told": 5257,
      "Ġmoment": 5258,
      "Ġfla": 5259,
      "Ġcent": 5260,
      "Ġpull": 5261,
      "omuch": 5262,
      "Ġlame": 5263,
      "Ġwhereas": 5264,
      "Ġgrown": 5265,
      "Ġtumult": 5266,
      "chiah": 5267,
      "ashamed": 5268,
      "rice": 5269,
      "ĠGrace": 5270,
      "Ġkine": 5271,
      "Ġkiss": 5272,
      "Ġkissed": 5273,
      "ichri": 5274,
      "order": 5275,
      "Ġrend": 5276,
      "ĠBil": 5277,
      "Ġgotten": 5278,
      "ifer": 5279,
      "Ġsever": 5280,
      "ophel": 5281,
      "Ġste": 5282,
      "Ġstedfast": 5283,
      "Ġalway": 5284,
      "147": 5285,
      "Ġevermore": 5286,
      "Ġjewels": 5287,
      "Ġjubile": 5288,
      "Ġdeb": 5289,
      "Ġsinneth": 5290,
      "ĠJehoram": 5291,
      "ĠZo": 5292,
      "neh": 5293,
      "ĠAbel": 5294,
      "Ġbringing": 5295,
      "Ġchapit": 5296,
      "meat": 5297,
      "Ġsetteth": 5298,
      "ĠAmm": 5299,
      "Ġseal": 5300,
      "Ġended": 5301,
      "aias": 5302,
      "therein": 5303,
      "Ġdrinking": 5304,
      "Ġdiscern": 5305,
      "ecy": 5306,
      "ĠShushan": 5307,
      "supp": 5308,
      "Ġbearing": 5309,
      "Ġclear": 5310,
      "ĠArnon": 5311,
      "Ġsubdu": 5312,
      "ĠMany": 5313,
      "Ġsinging": 5314,
      "Ġhelped": 5315,
      "Ġnorthward": 5316,
      "Ġskins": 5317,
      "Ġguide": 5318,
      "Ġsickness": 5319,
      "pect": 5320,
      "twelve": 5321,
      "Ġmatters": 5322,
      "Ġburdens": 5323,
      "Ġrequired": 5324,
      "Ġcruel": 5325,
      "Ġcedars": 5326,
      "ĠRamoth": 5327,
      "Ġadversary": 5328,
      "Ġdeceitful": 5329,
      "ĠHazael": 5330,
      "Ġdeny": 5331,
      "Ġperformed": 5332,
      "Abraham": 5333,
      "gods": 5334,
      "Ġbottom": 5335,
      "Ġmarvelled": 5336,
      "wickedness": 5337,
      "Ġlamentation": 5338,
      "Ammon": 5339,
      "Ġcoup": 5340,
      "ĠMizpah": 5341,
      "urion": 5342,
      "Ġshoes": 5343,
      "Ġshoot": 5344,
      "Ġstirred": 5345,
      "truth": 5346,
      "ĠJabesh": 5347,
      "poll": 5348,
      "afraid": 5349,
      "multitude": 5350,
      "cannot": 5351,
      "Ġchange": 5352,
      "arents": 5353,
      "ĠEpistle": 5354,
      "Ġreckoned": 5355,
      "Ġtimber": 5356,
      "Ġapproach": 5357,
      "Ġbesieged": 5358,
      "Ġtaste": 5359,
      "Ġastray": 5360,
      "ĠMachir": 5361,
      "uphrates": 5362,
      "Ġestimation": 5363,
      "ĠSisera": 5364,
      "Ġprincipal": 5365,
      "ĠAshdod": 5366,
      "Ġamazed": 5367,
      "ĠElkanah": 5368,
      "67": 5369,
      "83": 5370,
      "88": 5371,
      "Saul": 5372,
      "bull": 5373,
      "don": 5374,
      "die": 5375,
      "fear": 5376,
      "ffect": 5377,
      "icks": 5378,
      "nam": 5379,
      "nothing": 5380,
      "oa": 5381,
      "pun": 5382,
      "pence": 5383,
      "sake": 5384,
      "sister": 5385,
      "serve": 5386,
      "tar": 5387,
      "times": 5388,
      "wood": 5389,
      "wife": 5390,
      "thophel": 5391,
      "Ġself": 5392,
      "Ġow": 5393,
      "Ġoft": 5394,
      "Ġbirth": 5395,
      "Ġmor": 5396,
      "hai": 5397,
      "eacea": 5398,
      "Ġpots": 5399,
      "anointed": 5400,
      "Ġlar": 5401,
      "Ġlab": 5402,
      "Ġlew": 5403,
      "Ġgi": 5404,
      "Ġgat": 5405,
      "utter": 5406,
      "ĠLachish": 5407,
      "Ġtaking": 5408,
      "ĠTab": 5409,
      "Ġeffect": 5410,
      "eturn": 5411,
      "ĠSu": 5412,
      "ĠSet": 5413,
      "ĠBer": 5414,
      "Ġmyr": 5415,
      "ahel": 5416,
      "Ġsongs": 5417,
      "ifieth": 5418,
      "ĠHel": 5419,
      "ĠHiram": 5420,
      "Ġseer": 5421,
      "aketh": 5422,
      "ĠMacedonia": 5423,
      "Ġstro": 5424,
      "Ġstumble": 5425,
      "116": 5426,
      "abund": 5427,
      "Ġaloud": 5428,
      "oted": 5429,
      "ĠOg": 5430,
      "Ġamb": 5431,
      "ĠNine": 5432,
      "lare": 5433,
      "ĠCast": 5434,
      "Ġused": 5435,
      "ardon": 5436,
      "Ġhasted": 5437,
      "Ġcommend": 5438,
      "ĠBefore": 5439,
      "Ġsinner": 5440,
      "Ġrid": 5441,
      "ĠAsk": 5442,
      "ĠAsia": 5443,
      "everlasting": 5444,
      "within": 5445,
      "Ġroots": 5446,
      "achin": 5447,
      "Ġperished": 5448,
      "Ġsawest": 5449,
      "ĠKish": 5450,
      "Ġ42": 5451,
      "habiah": 5452,
      "Ġkeeper": 5453,
      "Ġhowl": 5454,
      "Ġplow": 5455,
      "Ġplent": 5456,
      "endureth": 5457,
      "Ġmultitudes": 5458,
      "Ġrested": 5459,
      "Ġcontend": 5460,
      "Ġcontrary": 5461,
      "Ġconsent": 5462,
      "Ġstronger": 5463,
      "Ġflower": 5464,
      "ails": 5465,
      "ĠJehoahaz": 5466,
      "Ġbesto": 5467,
      "ĠSheb": 5468,
      "Ġelder": 5469,
      "Ġwinds": 5470,
      "ĠEsaias": 5471,
      "Ġsalute": 5472,
      "Ġvisions": 5473,
      "versation": 5474,
      "Ġdefence": 5475,
      "Ġreprove": 5476,
      "Thus": 5477,
      "Therefore": 5478,
      "Ġstrive": 5479,
      "Ġpreaching": 5480,
      "heathen": 5481,
      "sheep": 5482,
      "prep": 5483,
      "knowledge": 5484,
      "Ġbarren": 5485,
      "ĠJezebel": 5486,
      "Ġvisited": 5487,
      "Ġgroan": 5488,
      "Ġpersecute": 5489,
      "Ġlearned": 5490,
      "Ġrestored": 5491,
      "Ġexcellency": 5492,
      "Ġmarvellous": 5493,
      "ĠStand": 5494,
      "generations": 5495,
      "Ġoverthrow": 5496,
      "Ġeleventh": 5497,
      "ĠKeep": 5498,
      "ĠNaboth": 5499,
      "emption": 5500,
      "ĠHagg": 5501,
      "Ġbridegroom": 5502,
      "ĠIthamar": 5503,
      "Ġhallowed": 5504,
      "Ġtempest": 5505,
      "Ġdiscovered": 5506,
      "Ġpersuaded": 5507,
      "Ġpronounce": 5508,
      "statutes": 5509,
      "ĠGomor": 5510,
      "ĠObadiah": 5511,
      "Ġlarge": 5512,
      "Ġlewd": 5513,
      "81": 5514,
      "86": 5515,
      "Aaron": 5516,
      "Jos": 5517,
      "Jeremiah": 5518,
      "Solomon": 5519,
      "Selah": 5520,
      "ax": 5521,
      "dition": 5522,
      "labour": 5523,
      "mind": 5524,
      "mite": 5525,
      "master": 5526,
      "mured": 5527,
      "pan": 5528,
      "scri": 5529,
      "Ġease": 5530,
      "Ġacknow": 5531,
      "Ġsort": 5532,
      "Ġwis": 5533,
      "Ġbone": 5534,
      "Ġmove": 5535,
      "ising": 5536,
      "ene": 5537,
      "Ġfain": 5538,
      "Ġfemale": 5539,
      "Ġfashion": 5540,
      "oring": 5541,
      "ont": 5542,
      "Ġdar": 5543,
      "Ġtoken": 5544,
      "itess": 5545,
      "Ġpi": 5546,
      "Ġpledge": 5547,
      "Ġparents": 5548,
      "Ġlend": 5549,
      "Ġhew": 5550,
      "veh": 5551,
      "ution": 5552,
      "Ġtried": 5553,
      "ĠThose": 5554,
      "earim": 5555,
      "ĠGather": 5556,
      "urst": 5557,
      "Ġasunder": 5558,
      "Ġsaidst": 5559,
      "Ġthereby": 5560,
      "ĠMel": 5561,
      "ĠMal": 5562,
      "115": 5563,
      "ĠEuphrates": 5564,
      "132": 5565,
      "Ġvile": 5566,
      "iege": 5567,
      "ĠNadab": 5568,
      "Ġheaps": 5569,
      "Ġusury": 5570,
      "Ġearnest": 5571,
      "Ġtwined": 5572,
      "Ġworm": 5573,
      "isheth": 5574,
      "Ġgreatest": 5575,
      "ppeth": 5576,
      "ccoth": 5577,
      "ĠJehi": 5578,
      "Ġaccus": 5579,
      "ĠZim": 5580,
      "Ġstor": 5581,
      "Ġring": 5582,
      "ĠRab": 5583,
      "ĠReturn": 5584,
      "ĠAmon": 5585,
      "Ġfeeble": 5586,
      "Ġmerchandise": 5587,
      "Ġplay": 5588,
      "Ġpartakers": 5589,
      "ĠUri": 5590,
      "Ġbeard": 5591,
      "Ġholds": 5592,
      "Ġthrown": 5593,
      "Ġhusbandmen": 5594,
      "ĠJoel": 5595,
      "Ġkilleth": 5596,
      "Ġdreams": 5597,
      "Ġforehead": 5598,
      "Ġfulfil": 5599,
      "twenty": 5600,
      "Ġbaptism": 5601,
      "ĠAhikam": 5602,
      "ĠAhithophel": 5603,
      "broken": 5604,
      "ĠZerah": 5605,
      "ĠZerubbabel": 5606,
      "Jews": 5607,
      "Ġbeautiful": 5608,
      "women": 5609,
      "Ġbitterness": 5610,
      "Ġexecuted": 5611,
      "Ġvirgins": 5612,
      "trees": 5613,
      "ĠNaomi": 5614,
      "Ġcarcases": 5615,
      "Ġcompanions": 5616,
      "Ġinwards": 5617,
      "ĠAchish": 5618,
      "Ġbetrayed": 5619,
      "Ġtrembled": 5620,
      "ĠNabal": 5621,
      "ĠHittites": 5622,
      "ĠHittite": 5623,
      "Ġhypocrites": 5624,
      "Ġoccasion": 5625,
      "Ġperverse": 5626,
      "counsel": 5627,
      "Ġinfirm": 5628,
      "Ġfilth": 5629,
      "Ġconcubine": 5630,
      "Ġdoubt": 5631,
      "desolate": 5632,
      "ĠHaving": 5633,
      "Ġprecepts": 5634,
      "Ġeunuchs": 5635,
      "ĠSeraiah": 5636,
      "vessels": 5637,
      "izzites": 5638,
      "Ġgovernors": 5639,
      "Ġrelease": 5640,
      "Ġmystery": 5641,
      "90": 5642,
      "bly": 5643,
      "blessed": 5644,
      "cut": 5645,
      "clean": 5646,
      "ded": 5647,
      "eld": 5648,
      "far": 5649,
      "fif": 5650,
      "five": 5651,
      "ground": 5652,
      "houses": 5653,
      "jearim": 5654,
      "mri": 5655,
      "nings": 5656,
      "pel": 5657,
      "sav": 5658,
      "such": 5659,
      "sabb": 5660,
      "somuch": 5661,
      "trust": 5662,
      "va": 5663,
      "war": 5664,
      "wine": 5665,
      "wrought": 5666,
      "inims": 5667,
      "erers": 5668,
      "Ġbru": 5669,
      "Ġmus": 5670,
      "Ġfre": 5671,
      "Ġfeareth": 5672,
      "orted": 5673,
      "ede": 5674,
      "edience": 5675,
      "Ġcy": 5676,
      "Ġcens": 5677,
      "Ġcatch": 5678,
      "only": 5679,
      "haiah": 5680,
      "having": 5681,
      "Ġdire": 5682,
      "Ġnest": 5683,
      "ĠId": 5684,
      "omer": 5685,
      "Ġlower": 5686,
      "Ġshaken": 5687,
      "Ġglean": 5688,
      "Ġunjust": 5689,
      "uty": 5690,
      "Ġtry": 5691,
      "Ġforasmuch": 5692,
      "ĠTeman": 5693,
      "Ġemb": 5694,
      "Ġwithd": 5695,
      "keh": 5696,
      "iliar": 5697,
      "ĠSir": 5698,
      "ĠSad": 5699,
      "ĠBre": 5700,
      "ĠBless": 5701,
      "Ġascend": 5702,
      "ushi": 5703,
      "ĠHas": 5704,
      "ĠHore": 5705,
      "Ġfav": 5706,
      "Ġfaileth": 5707,
      "Ġspent": 5708,
      "alon": 5709,
      "cken": 5710,
      "Ġherb": 5711,
      "geon": 5712,
      "Ġdeed": 5713,
      "forty": 5714,
      "area": 5715,
      "Ġcolt": 5716,
      "Ġswine": 5717,
      "Ġaccursed": 5718,
      "ĠZib": 5719,
      "Ġrow": 5720,
      "vily": 5721,
      "Ġmightest": 5722,
      "ĠAsahel": 5723,
      "feet": 5724,
      "Ġfold": 5725,
      "Ġburneth": 5726,
      "Ġroof": 5727,
      "Ġpertain": 5728,
      "Ġperadventure": 5729,
      "Ġdesir": 5730,
      "hama": 5731,
      "spake": 5732,
      "spoil": 5733,
      "spring": 5734,
      "Ġ43": 5735,
      "Ġ49": 5736,
      "Ġrage": 5737,
      "Ġmouths": 5738,
      "Ġplayed": 5739,
      "Ġgraves": 5740,
      "Ġscour": 5741,
      "ĠShel": 5742,
      "Ġlean": 5743,
      "Ġleague": 5744,
      "ĠEliab": 5745,
      "ifying": 5746,
      "ĠManoah": 5747,
      "Ġclothing": 5748,
      "eyes": 5749,
      "Ġconfirm": 5750,
      "hearken": 5751,
      "Ġprovince": 5752,
      "Ġmarry": 5753,
      "ĠHezron": 5754,
      "Ġstricken": 5755,
      "neys": 5756,
      "Ġslayer": 5757,
      "Ġpresented": 5758,
      "back": 5759,
      "Ġdreamed": 5760,
      "Ġdespiseth": 5761,
      "shew": 5762,
      "ĠAmmonites": 5763,
      "Ġvictual": 5764,
      "Ġnevertheless": 5765,
      "Ġfalsely": 5766,
      "wives": 5767,
      "ĠUntil": 5768,
      "Ġpasture": 5769,
      "affli": 5770,
      "airs": 5771,
      "mountain": 5772,
      "Ġcondemned": 5773,
      "Ġfloods": 5774,
      "Ġfetched": 5775,
      "aneel": 5776,
      "treas": 5777,
      "Ġplucked": 5778,
      "Ġrecompence": 5779,
      "Ġredemption": 5780,
      "ĠWhither": 5781,
      "ĠHebrews": 5782,
      "Ġdragon": 5783,
      "skin": 5784,
      "Ġsafely": 5785,
      "Ġsafety": 5786,
      "Ġmagnify": 5787,
      "Ġfiery": 5788,
      "Ġsimple": 5789,
      "Samaria": 5790,
      "ĠArab": 5791,
      "ĠObededom": 5792,
      "Ġcustom": 5793,
      "Ġtreacherously": 5794,
      "body": 5795,
      "ĠGaza": 5796,
      "Ġstubble": 5797,
      "Ġcovetousness": 5798,
      "Ġpomegranates": 5799,
      "Ġlegs": 5800,
      "tongue": 5801,
      "ĠTHE": 5802,
      "pieces": 5803,
      "Ġcenturion": 5804,
      "supplic": 5805,
      "Ġsubdued": 5806,
      "ĠNineveh": 5807,
      "79": 5808,
      "91": 5809,
      "Ham": 5810,
      "Who": 5811,
      "cah": 5812,
      "del": 5813,
      "ection": 5814,
      "gird": 5815,
      "mit": 5816,
      "ped": 5817,
      "praise": 5818,
      "rh": 5819,
      "rinketh": 5820,
      "sy": 5821,
      "save": 5822,
      "six": 5823,
      "teach": 5824,
      "ua": 5825,
      "uah": 5826,
      "ze": 5827,
      "thaliah": 5828,
      "Ġsounded": 5829,
      "ineth": 5830,
      "inadab": 5831,
      "Ġbal": 5832,
      "Ġbade": 5833,
      "Ġmel": 5834,
      "isions": 5835,
      "ences": 5836,
      "Ġfit": 5837,
      "ĠAro": 5838,
      "hach": 5839,
      "Ġdi": 5840,
      "Ġdiff": 5841,
      "itus": 5842,
      "iteth": 5843,
      "Ġpardon": 5844,
      "Ġbefall": 5845,
      "oman": 5846,
      "Ġgenealo": 5847,
      "Ġhewn": 5848,
      "ĠLift": 5849,
      "Ġtro": 5850,
      "Ġforce": 5851,
      "cho": 5852,
      "arrow": 5853,
      "ĠTob": 5854,
      "rach": 5855,
      "ĠGre": 5856,
      "urse": 5857,
      "ĠShob": 5858,
      "Ġascended": 5859,
      "add": 5860,
      "aum": 5861,
      "Ġshea": 5862,
      "Ġshore": 5863,
      "hill": 5864,
      "sold": 5865,
      "ĠEden": 5866,
      "Ġdove": 5867,
      "Ġherbs": 5868,
      "Ġvowed": 5869,
      "ĠOmri": 5870,
      "Ġnecks": 5871,
      "reshold": 5872,
      "Ġhooks": 5873,
      "Ġovercome": 5874,
      "Ġearthqu": 5875,
      "Ġputting": 5876,
      "igail": 5877,
      "forg": 5878,
      "form": 5879,
      "formed": 5880,
      "Ġcock": 5881,
      "Ġshoulders": 5882,
      "Ġstoned": 5883,
      "Ġrush": 5884,
      "Ġwhereunto": 5885,
      "Ġworking": 5886,
      "fend": 5887,
      "obah": 5888,
      "Ġenvy": 5889,
      "Ġrob": 5890,
      "Ġprophecy": 5891,
      "Ġdescend": 5892,
      "Ġlaws": 5893,
      "Ġraven": 5894,
      "Ġhigher": 5895,
      "Ġmiddle": 5896,
      "Ġsheweth": 5897,
      "Ġentereth": 5898,
      "echab": 5899,
      "Ġnights": 5900,
      "Ġharps": 5901,
      "Ġblot": 5902,
      "Ġquar": 5903,
      "Ġlayeth": 5904,
      "hathite": 5905,
      "Ġbase": 5906,
      "Ġbathe": 5907,
      "Ġleaves": 5908,
      "Ġmocked": 5909,
      "Ġchoice": 5910,
      "service": 5911,
      "perish": 5912,
      "Ġcourses": 5913,
      "ĠMoabites": 5914,
      "Ġrejoiceth": 5915,
      "ĠJonah": 5916,
      "ĠAnath": 5917,
      "Ġmourned": 5918,
      "Ġtransgressors": 5919,
      "Ġprisoners": 5920,
      "horse": 5921,
      "Ġfulness": 5922,
      "whatsoever": 5923,
      "preach": 5924,
      "ĠMicaiah": 5925,
      "whole": 5926,
      "Ġmaidens": 5927,
      "Ġsecretly": 5928,
      "prison": 5929,
      "Ġfoolishness": 5930,
      "Ġapostle": 5931,
      "ĠAhijah": 5932,
      "Ġsearched": 5933,
      "ĠAbijah": 5934,
      "Ġacceptable": 5935,
      "Ġhabitations": 5936,
      "Ġelect": 5937,
      "waters": 5938,
      "Ġmurmured": 5939,
      "umbling": 5940,
      "ĠSarai": 5941,
      "ĠHazor": 5942,
      "Ġdenied": 5943,
      "Ġpersecuted": 5944,
      "Ġpurposed": 5945,
      "ĠSeeing": 5946,
      "Ġbottles": 5947,
      "ĠHaran": 5948,
      "captivity": 5949,
      "lambs": 5950,
      "Ġintreated": 5951,
      "Ġlodged": 5952,
      "urious": 5953,
      "Ġpotter": 5954,
      "prayer": 5955,
      "ĠNethaniah": 5956,
      "Ġbrightness": 5957,
      "Ġtorn": 5958,
      "Ġtorment": 5959,
      "ĠKeilah": 5960,
      "rankincense": 5961,
      "returned": 5962,
      "ĠEthiopia": 5963,
      "Ġmedit": 5964,
      "Benjamin": 5965,
      "Ġspeedily": 5966,
      "ĠUpon": 5967,
      "Ġquestion": 5968,
      "Ġrecompense": 5969,
      "ĠLibnah": 5970,
      "Ġconspired": 5971,
      "ĠAholi": 5972,
      "Ġattend": 5973,
      "Ġproverb": 5974,
      "otheus": 5975,
      "abomination": 5976,
      "Ġministry": 5977,
      "Ġcalamity": 5978,
      "instru": 5979,
      "Ġoracle": 5980,
      "Ġsteward": 5981,
      "ĠGomorrah": 5982,
      "ĠJehiel": 5983,
      "Ġcymb": 5984,
      "ĠHoreb": 5985,
      "ĠAroer": 5986,
      "70": 5987,
      "76": 5988,
      "92": 5989,
      "Chald": 5990,
      "Heb": 5991,
      "Jon": 5992,
      "Ne": 5993,
      "Now": 5994,
      "beth": 5995,
      "could": 5996,
      "div": 5997,
      "fled": 5998,
      "feast": 5999,
      "husband": 6000,
      "nan": 6001,
      "phaz": 6002,
      "rance": 6003,
      "south": 6004,
      "tion": 6005,
      "ued": 6006,
      "ually": 6007,
      "wash": 6008,
      "wrath": 6009,
      "thood": 6010,
      "Ġsigh": 6011,
      "Ġsloth": 6012,
      "tool": 6013,
      "Ġbud": 6014,
      "Ġbush": 6015,
      "esp": 6016,
      "edge": 6017,
      "Ġch": 6018,
      "Ġcro": 6019,
      "Ġcrieth": 6020,
      "ĠAhim": 6021,
      "ĠApost": 6022,
      "Ġdread": 6023,
      "Ġdrank": 6024,
      "itub": 6025,
      "Ġnay": 6026,
      "Ġnour": 6027,
      "aned": 6028,
      "seen": 6029,
      "stre": 6030,
      "stret": 6031,
      "strong": 6032,
      "Ġghost": 6033,
      "immon": 6034,
      "Ġheifer": 6035,
      "Ġunrighteousness": 6036,
      "chur": 6037,
      "arch": 6038,
      "arite": 6039,
      "irmed": 6040,
      "early": 6041,
      "ĠJok": 6042,
      "kept": 6043,
      "ility": 6044,
      "ĠSave": 6045,
      "Ġrever": 6046,
      "ĠBes": 6047,
      "Ġasleep": 6048,
      "Ġmanna": 6049,
      "ĠHeth": 6050,
      "ĠMep": 6051,
      "ables": 6052,
      "above": 6053,
      "ĠIsraelites": 6054,
      "ĠFo": 6055,
      "Ġali": 6056,
      "144": 6057,
      "Ġoffence": 6058,
      "ospel": 6059,
      "ieves": 6060,
      "ĠDepart": 6061,
      "lath": 6062,
      "unneh": 6063,
      "Ġnecess": 6064,
      "lock": 6065,
      "accept": 6066,
      "Ġtwain": 6067,
      "ols": 6068,
      "istress": 6069,
      "shakeh": 6070,
      "quet": 6071,
      "itting": 6072,
      "fort": 6073,
      "Ġcold": 6074,
      "Ġdeals": 6075,
      "Ġaccord": 6076,
      "lives": 6077,
      "Ġboard": 6078,
      "never": 6079,
      "Ġride": 6080,
      "Ġrows": 6081,
      "wherefore": 6082,
      "ernaum": 6083,
      "Ġpertained": 6084,
      "Ġdescended": 6085,
      "Ġexam": 6086,
      "Ġexerc": 6087,
      "ĠAmram": 6088,
      "agon": 6089,
      "Ġcasteth": 6090,
      "turned": 6091,
      "Ġdwellest": 6092,
      "upright": 6093,
      "attereth": 6094,
      "Ġkeepers": 6095,
      "Ġhowbeit": 6096,
      "Ġfamiliar": 6097,
      "ĠWhatsoever": 6098,
      "azar": 6099,
      "Ġstandard": 6100,
      "Ġyoungest": 6101,
      "Ġuncle": 6102,
      "Ġharm": 6103,
      "Ġblam": 6104,
      "Ġopeneth": 6105,
      "ĠShould": 6106,
      "apernaum": 6107,
      "Ġsixteen": 6108,
      "Ġbowl": 6109,
      "Ġwinepress": 6110,
      "Ġpurcha": 6111,
      "ĠBethshemesh": 6112,
      "Ġkindle": 6113,
      "ĠEphesus": 6114,
      "otstool": 6115,
      "ĠElah": 6116,
      "ĠAlas": 6117,
      "Ġdivisions": 6118,
      "Ġbackward": 6119,
      "Ġnamely": 6120,
      "surely": 6121,
      "ĠAnak": 6122,
      "ĠAnti": 6123,
      "Ġfasting": 6124,
      "Ġneighbours": 6125,
      "Ġstraw": 6126,
      "Ġsisters": 6127,
      "ĠBaalim": 6128,
      "Ġobtain": 6129,
      "Ġobedient": 6130,
      "tegr": 6131,
      "belief": 6132,
      "riesthood": 6133,
      "Ġwatchman": 6134,
      "shouldest": 6135,
      "wixt": 6136,
      "venteen": 6137,
      "Ġuprightness": 6138,
      "desp": 6139,
      "desire": 6140,
      "covered": 6141,
      "Ġbasons": 6142,
      "answer": 6143,
      "Ġtowers": 6144,
      "remain": 6145,
      "ĠUzziel": 6146,
      "Ġgrove": 6147,
      "Ġtemptation": 6148,
      "Ġcorruption": 6149,
      "Ġleper": 6150,
      "coast": 6151,
      "seeing": 6152,
      "testimon": 6153,
      "Ġhatred": 6154,
      "Ġhangings": 6155,
      "ĠSalute": 6156,
      "firstborn": 6157,
      "rising": 6158,
      "Ġtribulation": 6159,
      "ĠCaesarea": 6160,
      "Ġscriptures": 6161,
      "Ġcheer": 6162,
      "walked": 6163,
      "ĠNethinims": 6164,
      "Ġcommuned": 6165,
      "ĠMichal": 6166,
      "Ġavenged": 6167,
      "Ġdragons": 6168,
      "Ġhappy": 6169,
      "Ġmagnified": 6170,
      "fellow": 6171,
      "Ġignorance": 6172,
      "ĠKadesh": 6173,
      "suffering": 6174,
      "Ġwithered": 6175,
      "ĠProph": 6176,
      "Ġmurderer": 6177,
      "Ġconsidered": 6178,
      "Ġdepths": 6179,
      "ĠElishama": 6180,
      "Ġzeal": 6181,
      "ĠTirzah": 6182,
      "Ġboughs": 6183,
      "Ġweapons": 6184,
      "Ġfirmament": 6185,
      "ĠAmasa": 6186,
      "Ġpublicans": 6187,
      "Ġlaboured": 6188,
      "ĠSuccoth": 6189,
      "Ġlewdness": 6190,
      "Ġcymbals": 6191,
      "ĠAntioch": 6192,
      "tegrity": 6193,
      "75": 6194,
      "85": 6195,
      "Baal": 6196,
      "El": 6197,
      "GOD": 6198,
      "Sp": 6199,
      "She": 6200,
      "Zeb": 6201,
      "bers": 6202,
      "bran": 6203,
      "bond": 6204,
      "cried": 6205,
      "cerning": 6206,
      "di": 6207,
      "dre": 6208,
      "dal": 6209,
      "ele": 6210,
      "eus": 6211,
      "fat": 6212,
      "hum": 6213,
      "kla": 6214,
      "kill": 6215,
      "knew": 6216,
      "line": 6217,
      "lers": 6218,
      "mag": 6219,
      "olt": 6220,
      "pa": 6221,
      "rors": 6222,
      "ss": 6223,
      "sat": 6224,
      "saken": 6225,
      "saw": 6226,
      "tell": 6227,
      "uz": 6228,
      "uous": 6229,
      "uish": 6230,
      "uzar": 6231,
      "wake": 6232,
      "zur": 6233,
      "Ġthreshold": 6234,
      "Ġsurn": 6235,
      "Ġscept": 6236,
      "Ġsoft": 6237,
      "Ġsiege": 6238,
      "ining": 6239,
      "Ġwing": 6240,
      "Ġwra": 6241,
      "Ġwages": 6242,
      "erxes": 6243,
      "rets": 6244,
      "rejoice": 6245,
      "Ġmire": 6246,
      "Ġmasters": 6247,
      "Ġfrankincense": 6248,
      "orite": 6249,
      "ĠAthaliah": 6250,
      "Ġder": 6251,
      "eam": 6252,
      "Ġinsomuch": 6253,
      "Ġpriesthood": 6254,
      "ĠIz": 6255,
      "Ġwhoring": 6256,
      "send": 6257,
      "ĠLy": 6258,
      "Ġnoon": 6259,
      "Ġti": 6260,
      "cher": 6261,
      "Ġsailed": 6262,
      "ods": 6263,
      "iriam": 6264,
      "Ġwithhold": 6265,
      "rained": 6266,
      "ĠGreat": 6267,
      "ĠSidon": 6268,
      "Ġreven": 6269,
      "ĠBapt": 6270,
      "ĠBani": 6271,
      "aints": 6272,
      "Ġcomely": 6273,
      "Ġshot": 6274,
      "ĠHeman": 6275,
      "Ġseventeen": 6276,
      "ĠMil": 6277,
      "ĠMag": 6278,
      "Ġoutward": 6279,
      "sol": 6280,
      "solation": 6281,
      "148": 6282,
      "Ġsoever": 6283,
      "Ġnether": 6284,
      "Ġtwice": 6285,
      "Ġhoof": 6286,
      "Ġbreaketh": 6287,
      "ĠBez": 6288,
      "ume": 6289,
      "ittite": 6290,
      "areah": 6291,
      "Ġaccuse": 6292,
      "Ġboil": 6293,
      "nego": 6294,
      "Ġrans": 6295,
      "ĠRise": 6296,
      "Ġbuck": 6297,
      "meel": 6298,
      "meet": 6299,
      "melech": 6300,
      "Ġwhomsoever": 6301,
      "Ġbeholding": 6302,
      "Ġenjoy": 6303,
      "icient": 6304,
      "Ġturning": 6305,
      "Ġanguish": 6306,
      "Ġexpect": 6307,
      "Ġcasting": 6308,
      "Ġspeakest": 6309,
      "Ġpraying": 6310,
      "Ġ45": 6311,
      "Ġdwellings": 6312,
      "overty": 6313,
      "Ġbloody": 6314,
      "Ġhighway": 6315,
      "Ġslow": 6316,
      "Ġgathereth": 6317,
      "aioth": 6318,
      "Ġshewbread": 6319,
      "Ġgodliness": 6320,
      "Ġwars": 6321,
      "Ġcompl": 6322,
      "attern": 6323,
      "Ġcontempt": 6324,
      "Ġconsult": 6325,
      "Ġ51": 6326,
      "sured": 6327,
      "Ġsixty": 6328,
      "hadrach": 6329,
      "Ġwailing": 6330,
      "Ġlongsuffering": 6331,
      "beside": 6332,
      "ĠJehoash": 6333,
      "ĠEliezer": 6334,
      "aanah": 6335,
      "Ġuttered": 6336,
      "Ġhideth": 6337,
      "ĠHold": 6338,
      "Ġmarriage": 6339,
      "Ġbreaking": 6340,
      "ablished": 6341,
      "door": 6342,
      "ĠSeven": 6343,
      "Ġminded": 6344,
      "plant": 6345,
      "Ġneeds": 6346,
      "north": 6347,
      "Ġrode": 6348,
      "Ġrods": 6349,
      "Ġsorrowful": 6350,
      "beloved": 6351,
      "destruction": 6352,
      "nares": 6353,
      "ĠMaha": 6354,
      "Ġinstructed": 6355,
      "Ġbases": 6356,
      "Ġmurmur": 6357,
      "Ġseemed": 6358,
      "oshen": 6359,
      "Ġkidneys": 6360,
      "trib": 6361,
      "tribes": 6362,
      "ĠBelial": 6363,
      "smote": 6364,
      "Ġsoweth": 6365,
      "Ġhanging": 6366,
      "Ġthirsty": 6367,
      "Ġcompanies": 6368,
      "ĠJephunneh": 6369,
      "Ġbanquet": 6370,
      "trump": 6371,
      "Ġfingers": 6372,
      "ĠTimotheus": 6373,
      "Ġabhorred": 6374,
      "Ġclothe": 6375,
      "Ġbelongeth": 6376,
      "Ass": 6377,
      "Ġwander": 6378,
      "Ġshortly": 6379,
      "ĠMattaniah": 6380,
      "Ġignorant": 6381,
      "hibosheth": 6382,
      "Ġbreaches": 6383,
      "slain": 6384,
      "Ġhinder": 6385,
      "prophesy": 6386,
      "Ġpublish": 6387,
      "whither": 6388,
      "ĠExcept": 6389,
      "ĠConcerning": 6390,
      "Ġsubject": 6391,
      "Ġlocusts": 6392,
      "Ġkinsman": 6393,
      "ĠNahor": 6394,
      "ĠNaaman": 6395,
      "profit": 6396,
      "Ġquenched": 6397,
      "Ġbacksl": 6398,
      "Nebuchad": 6399,
      "caused": 6400,
      "viol": 6401,
      "ĠRamothgilead": 6402,
      "punished": 6403,
      "Ġmyrrh": 6404,
      "axerxes": 6405,
      "Ġdarkened": 6406,
      "ĠRabshakeh": 6407,
      "Ġfilthiness": 6408,
      "ĠZiba": 6409,
      "ĠAnathoth": 6410,
      "Ġslothful": 6411,
      "ĠApostle": 6412,
      "azarus": 6413,
      "klag": 6414,
      "uzaradan": 6415,
      "ĠBaptist": 6416,
      "Ġransom": 6417,
      "84": 6418,
      "96": 6419,
      "Sh": 6420,
      "Son": 6421,
      "bound": 6422,
      "ding": 6423,
      "ether": 6424,
      "gid": 6425,
      "gri": 6426,
      "gah": 6427,
      "hom": 6428,
      "lif": 6429,
      "nath": 6430,
      "nash": 6431,
      "rone": 6432,
      "rush": 6433,
      "tree": 6434,
      "ukes": 6435,
      "vo": 6436,
      "viness": 6437,
      "wast": 6438,
      "wither": 6439,
      "zabad": 6440,
      "Ġill": 6441,
      "thir": 6442,
      "thus": 6443,
      "threescore": 6444,
      "throne": 6445,
      "Ġthieves": 6446,
      "Ġafore": 6447,
      "Ġagre": 6448,
      "Ġsed": 6449,
      "inion": 6450,
      "Ġwinter": 6451,
      "Ġoften": 6452,
      "rease": 6453,
      "reason": 6454,
      "repent": 6455,
      "touch": 6456,
      "Ġborrow": 6457,
      "Ġmill": 6458,
      "ater": 6459,
      "edan": 6460,
      "ednego": 6461,
      "Ġcop": 6462,
      "Ġcart": 6463,
      "ĠAwake": 6464,
      "hash": 6465,
      "Ġdash": 6466,
      "Ġdishon": 6467,
      "Ġdrinketh": 6468,
      "Ġdukes": 6469,
      "eafter": 6470,
      "itre": 6471,
      "Ġpet": 6472,
      "Ġpsal": 6473,
      "Ġpowers": 6474,
      "Ġpattern": 6475,
      "Ġbecometh": 6476,
      "seek": 6477,
      "separ": 6478,
      "chers": 6479,
      "arn": 6480,
      "ĠTru": 6481,
      "ĠTek": 6482,
      "ĠTwo": 6483,
      "ĠTitus": 6484,
      "cees": 6485,
      "river": 6486,
      "ĠJaph": 6487,
      "ĠGoshen": 6488,
      "ila": 6489,
      "uring": 6490,
      "ĠSit": 6491,
      "ĠBet": 6492,
      "roar": 6493,
      "rovers": 6494,
      "ĠHash": 6495,
      "Ġsprings": 6496,
      "alone": 6497,
      "Ġstumbling": 6498,
      "108": 6499,
      "Ġweighed": 6500,
      "140": 6501,
      "osing": 6502,
      "ĠDel": 6503,
      "ĠDec": 6504,
      "ĠDib": 6505,
      "ephan": 6506,
      "ĠPed": 6507,
      "ĠPekah": 6508,
      "ĠWhether": 6509,
      "acha": 6510,
      "Ġwentest": 6511,
      "Ġconversation": 6512,
      "Ġlocks": 6513,
      "Ġliver": 6514,
      "Ġovertake": 6515,
      "Ġarrow": 6516,
      "Ġarches": 6517,
      "ĠHeber": 6518,
      "Ġcommitteth": 6519,
      "ĠBeware": 6520,
      "ppers": 6521,
      "umph": 6522,
      "umber": 6523,
      "shan": 6524,
      "atha": 6525,
      "forsaken": 6526,
      "ĠRuth": 6527,
      "ĠAbigail": 6528,
      "ĠAbednego": 6529,
      "Ġprevent": 6530,
      "Ġdisob": 6531,
      "Ġdisease": 6532,
      "ĠAmorite": 6533,
      "speaketh": 6534,
      "ivest": 6535,
      "ildo": 6536,
      "Ġshewing": 6537,
      "Ġbetwixt": 6538,
      "Ġentry": 6539,
      "Ġpressed": 6540,
      "Ġgodly": 6541,
      "onsider": 6542,
      "Ġscall": 6543,
      "ĠShun": 6544,
      "Ġfifteenth": 6545,
      "Ġbows": 6546,
      "ĠEliphaz": 6547,
      "Ġlonger": 6548,
      "Ġsending": 6549,
      "Ġsendeth": 6550,
      "Ġpurged": 6551,
      "ashur": 6552,
      "Ġfolloweth": 6553,
      "Ġeldest": 6554,
      "Ġfloor": 6555,
      "myself": 6556,
      "household": 6557,
      "Ġwindow": 6558,
      "Ġestate": 6559,
      "Ġhidden": 6560,
      "Ġstature": 6561,
      "Ġhusbands": 6562,
      "Ġteachers": 6563,
      "second": 6564,
      "Ġfasted": 6565,
      "Ġfastened": 6566,
      "Ġstripes": 6567,
      "Ġminds": 6568,
      "lemiah": 6569,
      "horon": 6570,
      "weep": 6571,
      "Ġbondmen": 6572,
      "Ġportions": 6573,
      "mayest": 6574,
      "Ġrewarded": 6575,
      "Ġriseth": 6576,
      "ĠBarak": 6577,
      "Ġdelic": 6578,
      "Ġsupper": 6579,
      "Ġincreaseth": 6580,
      "Ġmaidservant": 6581,
      "Ġparables": 6582,
      "uthun": 6583,
      "ĠReubenites": 6584,
      "Ġregion": 6585,
      "ĠIshb": 6586,
      "Ġflourish": 6587,
      "Ġfreewill": 6588,
      "Ġprivily": 6589,
      "ĠAhimelech": 6590,
      "Ġsepulchres": 6591,
      "famine": 6592,
      "Ġcandle": 6593,
      "wherein": 6594,
      "Ġdiligent": 6595,
      "ĠBela": 6596,
      "Ġregardeth": 6597,
      "Ġgroweth": 6598,
      "ĠSix": 6599,
      "Ġhealth": 6600,
      "Ġadded": 6601,
      "Ġblasphemed": 6602,
      "Ġbrooks": 6603,
      "Ġflowers": 6604,
      "ĠHadad": 6605,
      "ĠEliashib": 6606,
      "Ġcheek": 6607,
      "ducees": 6608,
      "Ġbank": 6609,
      "ĠGershom": 6610,
      "ĠZiph": 6611,
      "believed": 6612,
      "Ġwounds": 6613,
      "ĠMichael": 6614,
      "carried": 6615,
      "Ġuncovered": 6616,
      "Ġarmourbearer": 6617,
      "ĠHagar": 6618,
      "ubbaal": 6619,
      "Ġaccomplish": 6620,
      "Ġbaskets": 6621,
      "Ġwonderful": 6622,
      "number": 6623,
      "numbered": 6624,
      "cloud": 6625,
      "Ġnatura": 6626,
      "strangers": 6627,
      "Ġweeks": 6628,
      "Ġthreshingfloor": 6629,
      "Ġclave": 6630,
      "Ġconvocation": 6631,
      "worshi": 6632,
      "Ġcounsellors": 6633,
      "ĠKirjathjearim": 6634,
      "trouble": 6635,
      "ĠHivites": 6636,
      "chariots": 6637,
      "bullock": 6638,
      "abundance": 6639,
      "Ġacknowledge": 6640,
      "ĠZimri": 6641,
      "Ġfreely": 6642,
      "Ġdirect": 6643,
      "ĠSadducees": 6644,
      "Ġdiffer": 6645,
      "Ġearthquake": 6646,
      "ĠAhimaaz": 6647,
      "Ġblameless": 6648,
      "Ġsceptre": 6649,
      "97": 6650,
      "Ar": 6651,
      "Es": 6652,
      "ahab": 6653,
      "atonement": 6654,
      "bal": 6655,
      "bare": 6656,
      "bapt": 6657,
      "battle": 6658,
      "book": 6659,
      "cam": 6660,
      "col": 6661,
      "cry": 6662,
      "cattle": 6663,
      "camp": 6664,
      "claim": 6665,
      "corrupt": 6666,
      "find": 6667,
      "gard": 6668,
      "glon": 6669,
      "killed": 6670,
      "morning": 6671,
      "money": 6672,
      "near": 6673,
      "pal": 6674,
      "past": 6675,
      "pents": 6676,
      "rison": 6677,
      "saints": 6678,
      "trespass": 6679,
      "viour": 6680,
      "wa": 6681,
      "Ġrough": 6682,
      "Ġax": 6683,
      "Ġago": 6684,
      "inth": 6685,
      "Ġwist": 6686,
      "Ġwag": 6687,
      "erred": 6688,
      "ref": 6689,
      "rebe": 6690,
      "recom": 6691,
      "Ġber": 6692,
      "Ġbag": 6693,
      "Ġblast": 6694,
      "enai": 6695,
      "onour": 6696,
      "eable": 6697,
      "ealeth": 6698,
      "Ġintegrity": 6699,
      "Ġpip": 6700,
      "Ġpeacea": 6701,
      "Ġpoverty": 6702,
      "Ġbeware": 6703,
      "Ġbehalf": 6704,
      "Ġwide": 6705,
      "Ġhaught": 6706,
      "Ġshave": 6707,
      "still": 6708,
      "stead": 6709,
      "Ġgnash": 6710,
      "ident": 6711,
      "veth": 6712,
      "ĠLazarus": 6713,
      "Ġnostri": 6714,
      "Ġtear": 6715,
      "ask": 6716,
      "aston": 6717,
      "Ġsafe": 6718,
      "arah": 6719,
      "arry": 6720,
      "irac": 6721,
      "amed": 6722,
      "amah": 6723,
      "Ġisland": 6724,
      "Ġemer": 6725,
      "ĠThrough": 6726,
      "ĠJE": 6727,
      "ĠJop": 6728,
      "ĠGer": 6729,
      "ĠGesh": 6730,
      "Ġuphold": 6731,
      "ichm": 6732,
      "ĠSome": 6733,
      "ordin": 6734,
      "Ġreins": 6735,
      "Ġrebel": 6736,
      "Ġreserved": 6737,
      "estus": 6738,
      "Ġthereto": 6739,
      "ification": 6740,
      "ĠMi": 6741,
      "ĠMat": 6742,
      "ĠMiriam": 6743,
      "Ġspies": 6744,
      "Ġspears": 6745,
      "Ġstar": 6746,
      "Ġstick": 6747,
      "Ġstuff": 6748,
      "Ġstablish": 6749,
      "ĠFestus": 6750,
      "eopard": 6751,
      "Ġdog": 6752,
      "Ġalms": 6753,
      "143": 6754,
      "oking": 6755,
      "Ġoffereth": 6756,
      "Ġhandful": 6757,
      "phe": 6758,
      "ĠDraw": 6759,
      "ĠPashur": 6760,
      "Ġhealing": 6761,
      "ĠCapernaum": 6762,
      "Ġkneel": 6763,
      "Ġsober": 6764,
      "Ġconsolation": 6765,
      "ishes": 6766,
      "Ġoverlay": 6767,
      "shadow": 6768,
      "quare": 6769,
      "quaint": 6770,
      "ĠJerubbaal": 6771,
      "Ġcoats": 6772,
      "Ġdeaf": 6773,
      "Ġstoop": 6774,
      "Ġstopped": 6775,
      "Ġstolen": 6776,
      "swe": 6777,
      "ĠRechab": 6778,
      "ĠRimmon": 6779,
      "Ġchaff": 6780,
      "Ġenv": 6781,
      "Ġdeliverance": 6782,
      "ĠAmong": 6783,
      "ĠAmoz": 6784,
      "ĠAmariah": 6785,
      "ivory": 6786,
      "Ġmidnight": 6787,
      "Ġruin": 6788,
      "Ġthirteen": 6789,
      "compass": 6790,
      "prosp": 6791,
      "Ġfalling": 6792,
      "Ġlightnings": 6793,
      "Ġcarved": 6794,
      "Ġcarpent": 6795,
      "Ġpreserved": 6796,
      "hanaim": 6797,
      "Ġcontrovers": 6798,
      "ortal": 6799,
      "Ġopenly": 6800,
      "hadd": 6801,
      "Ġbuilders": 6802,
      "ĠEliakim": 6803,
      "Ġpurge": 6804,
      "ĠBethhoron": 6805,
      "ront": 6806,
      "offered": 6807,
      "perfect": 6808,
      "Ġcharger": 6809,
      "ĠCanst": 6810,
      "Ġvinegar": 6811,
      "hazi": 6812,
      "Ġreproof": 6813,
      "Ġfatness": 6814,
      "buried": 6815,
      "Thou": 6816,
      "ĠSeek": 6817,
      "ĠHamor": 6818,
      "Ġbeam": 6819,
      "Ġprisoner": 6820,
      "Ġdesireth": 6821,
      "rams": 6822,
      "ĠWherein": 6823,
      "Ġreproached": 6824,
      "Ġcaus": 6825,
      "ĠEdomites": 6826,
      "Ġvanities": 6827,
      "Ġresist": 6828,
      "Ġgreet": 6829,
      "ĠGadites": 6830,
      "Ġfalsehood": 6831,
      "Egyptians": 6832,
      "appointed": 6833,
      "Ġrevolt": 6834,
      "Ġwondered": 6835,
      "Ġleadeth": 6836,
      "Ġvisitation": 6837,
      "Ġwearied": 6838,
      "breadth": 6839,
      "eases": 6840,
      "Ġpunished": 6841,
      "maketh": 6842,
      "Ġwool": 6843,
      "Ġenchan": 6844,
      "Ġdistri": 6845,
      "ĠAhitub": 6846,
      "judgments": 6847,
      "reshed": 6848,
      "Ġtalent": 6849,
      "Ġshouted": 6850,
      "minadab": 6851,
      "help": 6852,
      "Ġfellowship": 6853,
      "smite": 6854,
      "Ġbottle": 6855,
      "Ġserpents": 6856,
      "Ġastonishment": 6857,
      "captains": 6858,
      "Ġmirth": 6859,
      "acherib": 6860,
      "ission": 6861,
      "Ġpatient": 6862,
      "Ġepistle": 6863,
      "Ġpurify": 6864,
      "Bethel": 6865,
      "sanctified": 6866,
      "Ġmerchant": 6867,
      "ĠPerizzites": 6868,
      "ĠZiklag": 6869,
      "Ġdrop": 6870,
      "ĠMeshach": 6871,
      "innom": 6872,
      "Ġboldly": 6873,
      "Ġroaring": 6874,
      "Ġsorc": 6875,
      "Ġinclined": 6876,
      "Ġfilthy": 6877,
      "ĠJeduthun": 6878,
      "Ġconcubines": 6879,
      "Ġlaughed": 6880,
      "ĠGezer": 6881,
      "ĠMedes": 6882,
      "ĠMartha": 6883,
      "prophesied": 6884,
      "ĠHushai": 6885,
      "Ġpsalteries": 6886,
      "ennacherib": 6887,
      "ĠMaachah": 6888,
      "ĠOphir": 6889,
      "ĠDebir": 6890,
      "Ġdimin": 6891,
      "ĠSilas": 6892,
      "Ġbrimstone": 6893,
      "reproach": 6894,
      "ĠGreeks": 6895,
      "Ġselfsame": 6896,
      "Ġplenteous": 6897,
      "elders": 6898,
      "sabbath": 6899,
      "Ġmusick": 6900,
      "ĠHashabiah": 6901,
      "Ġfavoured": 6902,
      "Ġvictuals": 6903,
      "ĠTobiah": 6904,
      "horsemen": 6905,
      "ĠAholib": 6906,
      "Jonathan": 6907,
      "ĠMephibosheth": 6908,
      "Ġalien": 6909,
      "Spirit": 6910,
      "Ġwrapped": 6911,
      "Ġderision": 6912,
      "Ġtithe": 6913,
      "Ġexpectation": 6914,
      "Assyria": 6915,
      "Ġnostrils": 6916,
      "ĠJoppa": 6917,
      "95": 6918,
      "Bar": 6919,
      "Ghost": 6920,
      "Gentiles": 6921,
      "Zion": 6922,
      "baal": 6923,
      "burden": 6924,
      "block": 6925,
      "cand": 6926,
      "cra": 6927,
      "cal": 6928,
      "dy": 6929,
      "fav": 6930,
      "friend": 6931,
      "geth": 6932,
      "gree": 6933,
      "gospel": 6934,
      "hites": 6935,
      "iation": 6936,
      "ipp": 6937,
      "journey": 6938,
      "ker": 6939,
      "kels": 6940,
      "leness": 6941,
      "ma": 6942,
      "met": 6943,
      "month": 6944,
      "messen": 6945,
      "masters": 6946,
      "oever": 6947,
      "port": 6948,
      "sick": 6949,
      "ta": 6950,
      "tai": 6951,
      "van": 6952,
      "vine": 6953,
      "wear": 6954,
      "west": 6955,
      "yx": 6956,
      "zill": 6957,
      "Ġthund": 6958,
      "Ġthrice": 6959,
      "Ġsli": 6960,
      "Ġsnares": 6961,
      "Ġoven": 6962,
      "iners": 6963,
      "Ġwol": 6964,
      "eres": 6965,
      "rez": 6966,
      "reath": 6967,
      "tory": 6968,
      "Ġbab": 6969,
      "Ġmi": 6970,
      "Ġmain": 6971,
      "Ġmitre": 6972,
      "orp": 6973,
      "esy": 6974,
      "Ġcaul": 6975,
      "Ġpress": 6976,
      "Ġpossible": 6977,
      "Ġnets": 6978,
      "Ġnarrow": 6979,
      "anias": 6980,
      "Ġbew": 6981,
      "Ġbeha": 6982,
      "omas": 6983,
      "image": 6984,
      "Ġhewed": 6985,
      "idle": 6986,
      "Ġunaw": 6987,
      "Ġunbelief": 6988,
      "Ġturt": 6989,
      "leel": 6990,
      "Ġsaving": 6991,
      "ira": 6992,
      "aming": 6993,
      "elon": 6994,
      "thers": 6995,
      "ĠJah": 6996,
      "ĠJahaz": 6997,
      "ĠGol": 6998,
      "ĠSec": 6999,
      "ĠSyrian": 7000,
      "ĠShadrach": 7001,
      "Ġreve": 7002,
      "adah": 7003,
      "Ġmanservant": 7004,
      "Ġmantle": 7005,
      "amech": 7006,
      "Ġshook": 7007,
      "ĠHonour": 7008,
      "ĠHinnom": 7009,
      "Ġspy": 7010,
      "alive": 7011,
      "Ġstate": 7012,
      "Ġstiff": 7013,
      "ĠEber": 7014,
      "ckled": 7015,
      "ĠFirst": 7016,
      "ption": 7017,
      "Ġalm": 7018,
      "rung": 7019,
      "Ġvic": 7020,
      "Ġvines": 7021,
      "geons": 7022,
      "redeemed": 7023,
      "ĠDagon": 7024,
      "ĠNone": 7025,
      "ĠPen": 7026,
      "ĠPrep": 7027,
      "Ġheaviness": 7028,
      "assad": 7029,
      "ĠChe": 7030,
      "ĠConsider": 7031,
      "unna": 7032,
      "unleavened": 7033,
      "Ġsole": 7034,
      "Ġloops": 7035,
      "ishua": 7036,
      "Ġproved": 7037,
      "Ġarchers": 7038,
      "ppa": 7039,
      "pphi": 7040,
      "ump": 7041,
      "Ġdefend": 7042,
      "Ġpassing": 7043,
      "Ġplaced": 7044,
      "Ġlaver": 7045,
      "arezer": 7046,
      "Ġaccused": 7047,
      "ĠZacc": 7048,
      "ĠAbinadab": 7049,
      "why": 7050,
      "Ġworkmen": 7051,
      "Ġengra": 7052,
      "Ġrolled": 7053,
      "nged": 7054,
      "Ġdiseases": 7055,
      "spread": 7056,
      "Ġjudgeth": 7057,
      "Ġ46": 7058,
      "erceness": 7059,
      "fulfilled": 7060,
      "Ġhighest": 7061,
      "Ġbetroth": 7062,
      "onds": 7063,
      "comp": 7064,
      "Ġlightning": 7065,
      "arks": 7066,
      "Ġdeparting": 7067,
      "Ġreigneth": 7068,
      "Ġfully": 7069,
      "Ġflatter": 7070,
      "Ġwheel": 7071,
      "Ġsurety": 7072,
      "Ġpossessions": 7073,
      "persec": 7074,
      "Ġrepair": 7075,
      "Ġgarrison": 7076,
      "Ġdevise": 7077,
      "Ġdevices": 7078,
      "Ġconfirmed": 7079,
      "devil": 7080,
      "Ġtrusteth": 7081,
      "angels": 7082,
      "Ġdrave": 7083,
      "committed": 7084,
      "ĠJonas": 7085,
      "ĠJonadab": 7086,
      "These": 7087,
      "ĠAnah": 7088,
      "Ġstripped": 7089,
      "Ġguilt": 7090,
      "noch": 7091,
      "worm": 7092,
      "worthy": 7093,
      "ĠNebo": 7094,
      "ĠNebuzaradan": 7095,
      "Ġpalsy": 7096,
      "Ġpromises": 7097,
      "Ġterrors": 7098,
      "shekels": 7099,
      "phatiah": 7100,
      "foot": 7101,
      "ĠPharisee": 7102,
      "Ġabundant": 7103,
      "Ġwatchmen": 7104,
      "ĠHermon": 7105,
      "afterward": 7106,
      "whosoever": 7107,
      "ĠHanan": 7108,
      "ĠZebah": 7109,
      "brass": 7110,
      "Ġfoolishly": 7111,
      "Ġdraweth": 7112,
      "covering": 7113,
      "Ġhairs": 7114,
      "Ġwondrous": 7115,
      "Ġruleth": 7116,
      "ĠChaldees": 7117,
      "ĠRemaliah": 7118,
      "Ġcalves": 7119,
      "scatter": 7120,
      "ĠAbihu": 7121,
      "Ġdelighted": 7122,
      "ĠOrnan": 7123,
      "heavens": 7124,
      "Ġprosperity": 7125,
      "Ġsojourneth": 7126,
      "exceeding": 7127,
      "eaten": 7128,
      "ĠArtaxerxes": 7129,
      "Ġmaker": 7130,
      "Ġcondemnation": 7131,
      "Ġshouting": 7132,
      "Ġerred": 7133,
      "Ġerror": 7134,
      "Ġmagicians": 7135,
      "ĠKnowing": 7136,
      "Ġcouple": 7137,
      "Ġflowing": 7138,
      "sacrifices": 7139,
      "Ġcompanion": 7140,
      "Ġcrucify": 7141,
      "Ġchasten": 7142,
      "Ġcreepeth": 7143,
      "Ġpurifying": 7144,
      "garments": 7145,
      "Ġoverthrown": 7146,
      "Ġcandlesticks": 7147,
      "ĠKohathites": 7148,
      "Ġsupplications": 7149,
      "Ġdrove": 7150,
      "Ġfountains": 7151,
      "Ġwaxen": 7152,
      "Ġavenge": 7153,
      "ĠMeshe": 7154,
      "ĠEthiopians": 7155,
      "Ġcleaveth": 7156,
      "Ġoccup": 7157,
      "almunna": 7158,
      "Ġvoices": 7159,
      "Ġsimil": 7160,
      "Ġsorry": 7161,
      "begat": 7162,
      "ĠJedaiah": 7163,
      "presence": 7164,
      "ĠMegid": 7165,
      "Ġfortress": 7166,
      "Ġevildo": 7167,
      "Ġproclaimed": 7168,
      "while": 7169,
      "Ġmeekness": 7170,
      "ĠKedar": 7171,
      "Ġgranted": 7172,
      "Ġpsaltery": 7173,
      "Ġrobbed": 7174,
      "Canaanites": 7175,
      "Ġcolour": 7176,
      "Ġseveral": 7177,
      "taroth": 7178,
      "Ġgiants": 7179,
      "Joshua": 7180,
      "Ġwisely": 7181,
      "Ġearnestly": 7182,
      "Ġstorm": 7183,
      "ĠBrethren": 7184,
      "affliction": 7185,
      "delight": 7186,
      "Ġmelted": 7187,
      "Chaldeans": 7188,
      "Ġcrooked": 7189,
      "branches": 7190,
      "dalene": 7191,
      "Ġconsulted": 7192,
      "Ġpetition": 7193,
      "ĠBetter": 7194,
      "weeping": 7195,
      "Ġnatural": 7196,
      "Ġdifference": 7197,
      "sweet": 7198,
      "Ġcontroversy": 7199,
      "zillai": 7200,
      "eresoever": 7201,
      "Ġunawares": 7202,
      "Ġvictory": 7203,
      "ĠPrepare": 7204,
      "Abs": 7205,
      "Ahaz": 7206,
      "Dan": 7207,
      "IN": 7208,
      "Joab": 7209,
      "Shem": 7210,
      "cing": 7211,
      "cel": 7212,
      "cur": 7213,
      "cari": 7214,
      "dw": 7215,
      "died": 7216,
      "drun": 7217,
      "eight": 7218,
      "gad": 7219,
      "gone": 7220,
      "gates": 7221,
      "hid": 7222,
      "hence": 7223,
      "ially": 7224,
      "lies": 7225,
      "linen": 7226,
      "mand": 7227,
      "ox": 7228,
      "obey": 7229,
      "poured": 7230,
      "passover": 7231,
      "ration": 7232,
      "sear": 7233,
      "sins": 7234,
      "slay": 7235,
      "tim": 7236,
      "till": 7237,
      "zeb": 7238,
      "Ġeas": 7239,
      "Ġesp": 7240,
      "Ġivory": 7241,
      "thirst": 7242,
      "Ġaud": 7243,
      "Ġsom": 7244,
      "Ġsang": 7245,
      "Ġsowed": 7246,
      "inoam": 7247,
      "edy": 7248,
      "ĠApoll": 7249,
      "Ġdan": 7250,
      "Ġdem": 7251,
      "Ġdress": 7252,
      "itions": 7253,
      "Ġpush": 7254,
      "Ġpenn": 7255,
      "ann": 7256,
      "anna": 7257,
      "ĠAndrew": 7258,
      "Ġlev": 7259,
      "seeth": 7260,
      "idron": 7261,
      "Ġunpunished": 7262,
      "uteth": 7263,
      "utation": 7264,
      "utish": 7265,
      "ĠLamech": 7266,
      "Ġnose": 7267,
      "Ġtran": 7268,
      "Ġforces": 7269,
      "asons": 7270,
      "Ġhiss": 7271,
      "Ġsapphi": 7272,
      "aram": 7273,
      "elop": 7274,
      "ander": 7275,
      "verted": 7276,
      "ĠThomas": 7277,
      "raud": 7278,
      "rias": 7279,
      "rippa": 7280,
      "ĠJeth": 7281,
      "ĠJair": 7282,
      "enter": 7283,
      "erechiah": 7284,
      "urim": 7285,
      "urther": 7286,
      "ĠSho": 7287,
      "ĠSuff": 7288,
      "ĠBath": 7289,
      "established": 7290,
      "Ġshear": 7291,
      "ĠHim": 7292,
      "ĠHod": 7293,
      "ĠHapp": 7294,
      "Ġfailed": 7295,
      "ĠMak": 7296,
      "ĠMark": 7297,
      "ĠMichm": 7298,
      "alom": 7299,
      "111": 7300,
      "112": 7301,
      "ĠEr": 7302,
      "ĠEbed": 7303,
      "ĠEglon": 7304,
      "ĠEnoch": 7305,
      "ĠWell": 7306,
      "ĠWisdom": 7307,
      "ĠWrite": 7308,
      "Ġalike": 7309,
      "allat": 7310,
      "emuel": 7311,
      "141": 7312,
      "146": 7313,
      "Ġhandle": 7314,
      "ĠOpen": 7315,
      "osen": 7316,
      "ĠDin": 7317,
      "ĠDest": 7318,
      "Ġabsent": 7319,
      "ĠCor": 7320,
      "became": 7321,
      "Ġearrings": 7322,
      "Ġworth": 7323,
      "Ġhole": 7324,
      "Ġliar": 7325,
      "elled": 7326,
      "Ġoverse": 7327,
      "Ġovercometh": 7328,
      "Ġariseth": 7329,
      "ĠBeing": 7330,
      "hehad": 7331,
      "Ġdece": 7332,
      "quick": 7333,
      "quiet": 7334,
      "ĠJudge": 7335,
      "others": 7336,
      "ĠZab": 7337,
      "ĠZichri": 7338,
      "dominion": 7339,
      "lieth": 7340,
      "Ġwatched": 7341,
      "ĠAbiram": 7342,
      "ubal": 7343,
      "Ġmightier": 7344,
      "whel": 7345,
      "Ġchain": 7346,
      "Ġchased": 7347,
      "avel": 7348,
      "aveth": 7349,
      "Ġfootstool": 7350,
      "igned": 7351,
      "Ġbeget": 7352,
      "Ġbegun": 7353,
      "Ġowner": 7354,
      "Ġperfection": 7355,
      "Ġfirstling": 7356,
      "Ġdisp": 7357,
      "Ġexac": 7358,
      "ĠAmminadab": 7359,
      "Ġgathering": 7360,
      "ĠPharez": 7361,
      "Ġplenty": 7362,
      "ffed": 7363,
      "endeth": 7364,
      "azer": 7365,
      "Ġlighted": 7366,
      "Ġcarnal": 7367,
      "Ġuncircumcision": 7368,
      "ecially": 7369,
      "mbled": 7370,
      "ĠRez": 7371,
      "sued": 7372,
      "ĠGog": 7373,
      "Ġadmon": 7374,
      "Ġleaf": 7375,
      "Ġleap": 7376,
      "Ġleavened": 7377,
      "ĠElihu": 7378,
      "Ġseeking": 7379,
      "Ġmeal": 7380,
      "ĠBenjam": 7381,
      "Ġcursing": 7382,
      "iblah": 7383,
      "ĠEphron": 7384,
      "Ġholden": 7385,
      "Ġunderstandeth": 7386,
      "ĠShew": 7387,
      "perform": 7388,
      "Ġdivine": 7389,
      "Ġtroubles": 7390,
      "eremoth": 7391,
      "angel": 7392,
      "Ġprovision": 7393,
      "Ġwaiteth": 7394,
      "Ġwasted": 7395,
      "ĠCanaanite": 7396,
      "Ġskirt": 7397,
      "doors": 7398,
      "ĠAnanias": 7399,
      "Ġstrike": 7400,
      "Ġcounsels": 7401,
      "Ġhoped": 7402,
      "ĠAssyrian": 7403,
      "Ġidolat": 7404,
      "Ġbeams": 7405,
      "Ġspreadeth": 7406,
      "Ġprofaned": 7407,
      "Ġsickle": 7408,
      "sheba": 7409,
      "shepherd": 7410,
      "shewed": 7411,
      "greater": 7412,
      "Ġfootmen": 7413,
      "belong": 7414,
      "Ġlabours": 7415,
      "honour": 7416,
      "Ġtrespassed": 7417,
      "Ġassemble": 7418,
      "Ġrunneth": 7419,
      "chaia": 7420,
      "preted": 7421,
      "judge": 7422,
      "ĠHanun": 7423,
      "ĠHannah": 7424,
      "ĠHanani": 7425,
      "giveth": 7426,
      "Ġbrace": 7427,
      "Ġprospered": 7428,
      "Ġcreatures": 7429,
      "ĠAfterward": 7430,
      "Ġhunt": 7431,
      "Ġcamel": 7432,
      "Ġplainly": 7433,
      "ĠMahanaim": 7434,
      "abbas": 7435,
      "appear": 7436,
      "ouraged": 7437,
      "Ġafflictions": 7438,
      "Ġdelighteth": 7439,
      "glor": 7440,
      "Ġoppressor": 7441,
      "Because": 7442,
      "remem": 7443,
      "Ġspeckled": 7444,
      "ĠUzzi": 7445,
      "Ġcorrupted": 7446,
      "goodness": 7447,
      "Ġsojourned": 7448,
      "fruitful": 7449,
      "ĠAshtaroth": 7450,
      "burning": 7451,
      "ĠKnowest": 7452,
      "fallen": 7453,
      "What": 7454,
      "Which": 7455,
      "ĠHarim": 7456,
      "Ġhyss": 7457,
      "Ġfinish": 7458,
      "grace": 7459,
      "Ġintreat": 7460,
      "Ġblasphemy": 7461,
      "Ġfloweth": 7462,
      "ĠHadarezer": 7463,
      "Ġpurified": 7464,
      "Ġchew": 7465,
      "Ġdungeon": 7466,
      "Ġoverthrew": 7467,
      "Ġarrayed": 7468,
      "Ġfrogs": 7469,
      "ĠJebusite": 7470,
      "interpret": 7471,
      "Ġclose": 7472,
      "Ġstraitly": 7473,
      "Ġbriers": 7474,
      "multip": 7475,
      "Ġfierceness": 7476,
      "Ġreacheth": 7477,
      "Ġproceedeth": 7478,
      "Ġscorner": 7479,
      "Ġincline": 7480,
      "Ġconsecrate": 7481,
      "Ġconsecrated": 7482,
      "ĠGehazi": 7483,
      "Ġimagination": 7484,
      "change": 7485,
      "charge": 7486,
      "Ġquestions": 7487,
      "Ġbidden": 7488,
      "ĠHoshea": 7489,
      "ĠKedesh": 7490,
      "Ġsubjection": 7491,
      "transgression": 7492,
      "ĠAgag": 7493,
      "ĠAgrippa": 7494,
      "defiled": 7495,
      "beasts": 7496,
      "Ġspoons": 7497,
      "ĠParan": 7498,
      "Ġrobbers": 7499,
      "ĠMahli": 7500,
      "Ġstreams": 7501,
      "Ġflax": 7502,
      "ĠBilhah": 7503,
      "Ġchapiters": 7504,
      "Ġcoupled": 7505,
      "Ġmorsel": 7506,
      "Ġstrove": 7507,
      "Ġbestowed": 7508,
      "ĠHaggai": 7509,
      "vaileth": 7510,
      "ĠIddo": 7511,
      "Ġdesiring": 7512,
      "Ġscourge": 7513,
      "ĠShelom": 7514,
      "Ġrobber": 7515,
      "Ġmeditate": 7516,
      "stretched": 7517,
      "Ġreverence": 7518,
      "ĠIzhar": 7519,
      "ĠMilcah": 7520,
      "profitable": 7521,
      "Ġbacksliding": 7522,
      "lifted": 7523,
      "ephaniah": 7524,
      "acharias": 7525,
      "ĠIshbosheth": 7526,
      "Ġaxe": 7527,
      "recompen": 7528,
      "Ġberea": 7529,
      "ĠGeshur": 7530,
      "quaintance": 7531,
      "Ġenchant": 7532,
      "Ġsimilitude": 7533,
      "ĠMegiddo": 7534,
      "Ġevildoers": 7535,
      "Absalom": 7536,
      "cariot": 7537,
      "dwelt": 7538,
      "zebub": 7539,
      "Ġaudience": 7540,
      "Ġpenny": 7541,
      "elophehad": 7542,
      "ĠHappy": 7543,
      "Ġhyssop": 7544,
      "82": 7545,
      "98": 7546,
      "99": 7547,
      "Al": 7548,
      "Bashan": 7549,
      "Gal": 7550,
      "He": 7551,
      "Jes": 7552,
      "Man": 7553,
      "Moab": 7554,
      "Mordecai": 7555,
      "Sha": 7556,
      "aven": 7557,
      "bo": 7558,
      "ban": 7559,
      "bad": 7560,
      "bot": 7561,
      "border": 7562,
      "ballat": 7563,
      "cour": 7564,
      "dri": 7565,
      "due": 7566,
      "eches": 7567,
      "fight": 7568,
      "fount": 7569,
      "free": 7570,
      "front": 7571,
      "gover": 7572,
      "hite": 7573,
      "hys": 7574,
      "ium": 7575,
      "iath": 7576,
      "ients": 7577,
      "ihud": 7578,
      "jalon": 7579,
      "low": 7580,
      "lear": 7581,
      "little": 7582,
      "lift": 7583,
      "mim": 7584,
      "mish": 7585,
      "must": 7586,
      "matter": 7587,
      "ns": 7588,
      "naked": 7589,
      "oham": 7590,
      "sa": 7591,
      "sah": 7592,
      "sun": 7593,
      "sought": 7594,
      "tra": 7595,
      "tereth": 7596,
      "tieth": 7597,
      "upp": 7598,
      "uries": 7599,
      "vah": 7600,
      "vings": 7601,
      "wond": 7602,
      "xad": 7603,
      "Ġere": 7604,
      "Ġhomer": 7605,
      "Ġod": 7606,
      "inner": 7607,
      "Ġwrest": 7608,
      "erable": 7609,
      "tops": 7610,
      "Ġmal": 7611,
      "Ġmoth": 7612,
      "ishadd": 7613,
      "ena": 7614,
      "ateth": 7615,
      "eshaz": 7616,
      "Ġcake": 7617,
      "ĠAle": 7618,
      "ĠAph": 7619,
      "ĠAchaia": 7620,
      "hair": 7621,
      "ealt": 7622,
      "Ġinv": 7623,
      "Ġpen": 7624,
      "Ġpil": 7625,
      "Ġpound": 7626,
      "Ġpins": 7627,
      "Ġnails": 7628,
      "anballat": 7629,
      "Ġlake": 7630,
      "Ġwhel": 7631,
      "stain": 7632,
      "Ġgained": 7633,
      "idd": 7634,
      "Ġunrighteous": 7635,
      "Ġnoble": 7636,
      "Ġtale": 7637,
      "Ġtach": 7638,
      "chosen": 7639,
      "lets": 7640,
      "Ġsaviour": 7641,
      "arit": 7642,
      "ĠTro": 7643,
      "ĠTerah": 7644,
      "ĠToph": 7645,
      "amre": 7646,
      "amoth": 7647,
      "elius": 7648,
      "vert": 7649,
      "Ġkin": 7650,
      "ilst": 7651,
      "ĠShi": 7652,
      "ĠSince": 7653,
      "ĠSennacherib": 7654,
      "ĠSanballat": 7655,
      "Ġreared": 7656,
      "ĠBerechiah": 7657,
      "venient": 7658,
      "Ġasketh": 7659,
      "ahmeel": 7660,
      "Ġtheirs": 7661,
      "adeth": 7662,
      "adult": 7663,
      "Ġshoe": 7664,
      "Ġshining": 7665,
      "ĠHea": 7666,
      "Ġseats": 7667,
      "hope": 7668,
      "hooks": 7669,
      "ĠMo": 7670,
      "ĠIscariot": 7671,
      "Ġspit": 7672,
      "Ġspared": 7673,
      "Ġspakest": 7674,
      "almon": 7675,
      "113": 7676,
      "ĠEhud": 7677,
      "ĠWatch": 7678,
      "Ġdoves": 7679,
      "122": 7680,
      "137": 7681,
      "Ġalarm": 7682,
      "allowed": 7683,
      "149": 7684,
      "Ġvom": 7685,
      "ĠDathan": 7686,
      "ĠDedan": 7687,
      "ĠNim": 7688,
      "ĠPr": 7689,
      "ĠPray": 7690,
      "illo": 7691,
      "asses": 7692,
      "Ġattained": 7693,
      "unt": 7694,
      "unah": 7695,
      "ĠWhereas": 7696,
      "resto": 7697,
      "Ġconvenient": 7698,
      "Ġholes": 7699,
      "Ġornam": 7700,
      "Ġoversight": 7701,
      "Ġservile": 7702,
      "ĠHepher": 7703,
      "ornelius": 7704,
      "ĠBeor": 7705,
      "ĠBeeroth": 7706,
      "hend": 7707,
      "umed": 7708,
      "Ġearthen": 7709,
      "athite": 7710,
      "Ġsinc": 7711,
      "ĠJuda": 7712,
      "Ġcost": 7713,
      "Ġforthwith": 7714,
      "Ġswell": 7715,
      "Ġsweareth": 7716,
      "Ġbroughtest": 7717,
      "ĠJeiel": 7718,
      "ĠZin": 7719,
      "ĠZacharias": 7720,
      "living": 7721,
      "Ġcommandeth": 7722,
      "ĠRahab": 7723,
      "Ġwatered": 7724,
      "Ġworkman": 7725,
      "Ġsentence": 7726,
      "Ġroast": 7727,
      "Ġperil": 7728,
      "Ġsmiteth": 7729,
      "Ġthroughly": 7730,
      "Ġexper": 7731,
      "Ġdelivereth": 7732,
      "Ġseasons": 7733,
      "sprink": 7734,
      "Ġotherwise": 7735,
      "ĠKings": 7736,
      "ĠKareah": 7737,
      "Ġ48": 7738,
      "ully": 7739,
      "Ġslumber": 7740,
      "Ġdestroying": 7741,
      "Ġruled": 7742,
      "Ġfamous": 7743,
      "Ġgrape": 7744,
      "comf": 7745,
      "coming": 7746,
      "Ġfearful": 7747,
      "thought": 7748,
      "Ġlights": 7749,
      "retch": 7750,
      "Ġfellows": 7751,
      "Ġwarm": 7752,
      "Ġwarn": 7753,
      "ĠSamarit": 7754,
      "Ġscattereth": 7755,
      "Isaac": 7756,
      "manifest": 7757,
      "ĠShes": 7758,
      "ĠShelah": 7759,
      "ĠUz": 7760,
      "elteshaz": 7761,
      "Ġlaying": 7762,
      "Ġwells": 7763,
      "Ġclust": 7764,
      "ĠAram": 7765,
      "ĠArpha": 7766,
      "Ġsubmit": 7767,
      "ashti": 7768,
      "ĠBethuel": 7769,
      "ĠBethany": 7770,
      "Ġkinds": 7771,
      "Ġkindly": 7772,
      "ĠShephatiah": 7773,
      "Ġcleansing": 7774,
      "Ġutmost": 7775,
      "Ġdevoureth": 7776,
      "ized": 7777,
      "Ġdivideth": 7778,
      "Ġdivination": 7779,
      "Ġhonest": 7780,
      "Ġdesolations": 7781,
      "Ġsufficient": 7782,
      "aachah": 7783,
      "Ġknewest": 7784,
      "Ġremaining": 7785,
      "Ġtestament": 7786,
      "goeth": 7787,
      "goings": 7788,
      "Ġteacheth": 7789,
      "ircumcise": 7790,
      "ĠJoah": 7791,
      "Ġbulls": 7792,
      "ĠAdar": 7793,
      "Ġguile": 7794,
      "ĠAssyrians": 7795,
      "Ġwashing": 7796,
      "noise": 7797,
      "Ġgrind": 7798,
      "yards": 7799,
      "Ġmourneth": 7800,
      "Ġprofess": 7801,
      "peor": 7802,
      "Ġredeemer": 7803,
      "Ġbeds": 7804,
      "Ġtroubleth": 7805,
      "Ġcorre": 7806,
      "Ġtrespasses": 7807,
      "ĠBarzillai": 7808,
      "ĠBarabbas": 7809,
      "Ġsufferings": 7810,
      "judah": 7811,
      "Ġtrave": 7812,
      "Ġtradition": 7813,
      "bitter": 7814,
      "Ġfaithfulness": 7815,
      "Ġuprightly": 7816,
      "Ġreasoned": 7817,
      "Ġhitherto": 7818,
      "ĠRemove": 7819,
      "heads": 7820,
      "headed": 7821,
      "Ġadversity": 7822,
      "Ġofficer": 7823,
      "ĠUzza": 7824,
      "Ġobserved": 7825,
      "Ġsnuff": 7826,
      "Ġdistressed": 7827,
      "ĠMerib": 7828,
      "Ġquicken": 7829,
      "increase": 7830,
      "Ġgardens": 7831,
      "family": 7832,
      "Ġadulter": 7833,
      "Ġchamberl": 7834,
      "burned": 7835,
      "Ġfetters": 7836,
      "ĠBeloved": 7837,
      "Ġpollute": 7838,
      "possessed": 7839,
      "intage": 7840,
      "Wherefore": 7841,
      "ĠAgainst": 7842,
      "eshbarn": 7843,
      "Amorites": 7844,
      "countenance": 7845,
      "Ġintent": 7846,
      "uncircumcised": 7847,
      "Ġweaned": 7848,
      "Ġmarket": 7849,
      "iniquities": 7850,
      "ĠNethaneel": 7851,
      "Ġquietness": 7852,
      "fourth": 7853,
      "ĠPeradventure": 7854,
      "carry": 7855,
      "adanaram": 7856,
      "Ġwandered": 7857,
      "Ġbrick": 7858,
      "Ġdedication": 7859,
      "Ġhappened": 7860,
      "ĠRedeem": 7861,
      "chambers": 7862,
      "Ġboldness": 7863,
      "Ġmiracle": 7864,
      "counsell": 7865,
      "declare": 7866,
      "persed": 7867,
      "ĠKenaz": 7868,
      "Ġpitcher": 7869,
      "Ġbadgers": 7870,
      "ĠShamm": 7871,
      "Ġrecovered": 7872,
      "Ġimagine": 7873,
      "Ġpublished": 7874,
      "Ġcusto": 7875,
      "confounded": 7876,
      "Jehoshaphat": 7877,
      "ĠCalled": 7878,
      "transgressions": 7879,
      "Ġzealous": 7880,
      "Ġeighteenth": 7881,
      "Ġcraft": 7882,
      "worship": 7883,
      "ĠDeborah": 7884,
      "Ġenlarged": 7885,
      "Ġcounsellor": 7886,
      "bowels": 7887,
      "ĠImmer": 7888,
      "Ġoverflowing": 7889,
      "Ġcolours": 7890,
      "ĠRabbah": 7891,
      "Ġvexation": 7892,
      "Reuben": 7893,
      "Ġstedfastly": 7894,
      "Ġchapiter": 7895,
      "Ġcoupling": 7896,
      "ĠJabeshgilead": 7897,
      "Ġowl": 7898,
      "ĠTabor": 7899,
      "Ġambassad": 7900,
      "prepare": 7901,
      "Ġfainted": 7902,
      "Ġpierc": 7903,
      "ĠUrijah": 7904,
      "Ġinfirmities": 7905,
      "saved": 7906,
      "edee": 7907,
      "Ġcenser": 7908,
      "Ġbalances": 7909,
      "Ġdipped": 7910,
      "Ġgenealogy": 7911,
      "Ġtroop": 7912,
      "ĠGreet": 7913,
      "ĠFollow": 7914,
      "testimony": 7915,
      "ĠProphesy": 7916,
      "ĠMagdalene": 7917,
      "Ġbuckler": 7918,
      "ĠTruly": 7919,
      "ĠJapheth": 7920,
      "ĠDeclare": 7921,
      "Ġdisobedient": 7922,
      "iracy": 7923,
      "candlest": 7924,
      "portion": 7925,
      "reathen": 7926,
      "ĠSecond": 7927,
      "ĠApollos": 7928,
      "Ġdemand": 7929,
      "ĠJethro": 7930,
      "urthermore": 7931,
      "ĠBathsheba": 7932,
      "Ġbracelets": 7933,
      "interpretation": 7934,
      "ishaddai": 7935,
      "ĠAlex": 7936,
      "Ġtaches": 7937,
      "Ġornaments": 7938,
      "elteshazzar": 7939,
      "ĠArphaxad": 7940,
      "eshbarnea": 7941,
      "87": 7942,
      "Ad": 7943,
      "Amen": 7944,
      "Bal": 7945,
      "Ged": 7946,
      "Ho": 7947,
      "In": 7948,
      "Mes": 7949,
      "Mal": 7950,
      "Neth": 7951,
      "Shim": 7952,
      "This": 7953,
      "ator": 7954,
      "bai": 7955,
      "bright": 7956,
      "crown": 7957,
      "circumcised": 7958,
      "ds": 7959,
      "dled": 7960,
      "doth": 7961,
      "drew": 7962,
      "equ": 7963,
      "ezer": 7964,
      "fow": 7965,
      "flee": 7966,
      "ihon": 7967,
      "iada": 7968,
      "kelon": 7969,
      "mis": 7970,
      "mea": 7971,
      "mans": 7972,
      "maveth": 7973,
      "nai": 7974,
      "niel": 7975,
      "names": 7976,
      "oll": 7977,
      "onder": 7978,
      "pulch": 7979,
      "pomegran": 7980,
      "sn": 7981,
      "sorrow": 7982,
      "square": 7983,
      "tan": 7984,
      "tal": 7985,
      "tage": 7986,
      "tents": 7987,
      "ui": 7988,
      "uck": 7989,
      "uously": 7990,
      "utors": 7991,
      "vill": 7992,
      "wilt": 7993,
      "yed": 7994,
      "yea": 7995,
      "Ġven": 7996,
      "think": 7997,
      "Ġthron": 7998,
      "Ġaged": 7999,
      "Ġobe": 8000,
      "Ġwont": 8001,
      "eri": 8002,
      "erday": 8003,
      "rel": 8004,
      "rehend": 8005,
      "Ġbake": 8006,
      "Ġbill": 8007,
      "Ġbaken": 8008,
      "Ġburst": 8009,
      "Ġmat": 8010,
      "Ġmess": 8011,
      "isance": 8012,
      "ating": 8013,
      "Ġcase": 8014,
      "Ġcurious": 8015,
      "Ġcrush": 8016,
      "hail": 8017,
      "Ġdau": 8018,
      "Ġdrought": 8019,
      "Ġdens": 8020,
      "ingplace": 8021,
      "Ġtooth": 8022,
      "its": 8023,
      "iter": 8024,
      "itish": 8025,
      "iture": 8026,
      "itute": 8027,
      "Ġpas": 8028,
      "Ġpow": 8029,
      "Ġpear": 8030,
      "Ġpav": 8031,
      "Ġpang": 8032,
      "Ġpoureth": 8033,
      "Ġphys": 8034,
      "Ġnail": 8035,
      "anks": 8036,
      "ĠIb": 8037,
      "Ġbend": 8038,
      "Ġhalt": 8039,
      "Ġlilies": 8040,
      "sepulch": 8041,
      "Ġyest": 8042,
      "Ġgivest": 8043,
      "imoth": 8044,
      "immediately": 8045,
      "ids": 8046,
      "Ġunic": 8047,
      "Ġunbelie": 8048,
      "ĠLay": 8049,
      "Ġtail": 8050,
      "Ġtakest": 8051,
      "ching": 8052,
      "chised": 8053,
      "leeth": 8054,
      "lework": 8055,
      "arise": 8056,
      "ĠTi": 8057,
      "Ġeg": 8058,
      "elix": 8059,
      "elids": 8060,
      "Ġnotwithstanding": 8061,
      "rivers": 8062,
      "ĠJachin": 8063,
      "ilight": 8064,
      "iliation": 8065,
      "ĠSab": 8066,
      "ĠSep": 8067,
      "ĠSanct": 8068,
      "ĠSib": 8069,
      "ĠSmite": 8070,
      "Ġrevil": 8071,
      "Ġretain": 8072,
      "Ġreeds": 8073,
      "Ġrenown": 8074,
      "ĠBig": 8075,
      "ĠBoth": 8076,
      "ĠBaanah": 8077,
      "rolo": 8078,
      "Ġassured": 8079,
      "Ġshowers": 8080,
      "ifully": 8081,
      "ĠHat": 8082,
      "hia": 8083,
      "Ġspan": 8084,
      "open": 8085,
      "Ġstamp": 8086,
      "Ġstairs": 8087,
      "ithiah": 8088,
      "sojour": 8089,
      "101": 8090,
      "114": 8091,
      "abeth": 8092,
      "abode": 8093,
      "ĠEzer": 8094,
      "ĠFurthermore": 8095,
      "Ġhereafter": 8096,
      "121": 8097,
      "124": 8098,
      "129": 8099,
      "130": 8100,
      "138": 8101,
      "Ġalmost": 8102,
      "emath": 8103,
      "emned": 8104,
      "Ġvirt": 8105,
      "Ġoffspring": 8106,
      "ĠOlives": 8107,
      "ĠDe": 8108,
      "ĠPel": 8109,
      "Ġbeforetime": 8110,
      "Ġmenservants": 8111,
      "ĠChem": 8112,
      "ĠCushi": 8113,
      "ĠCornelius": 8114,
      "Ġknop": 8115,
      "Ġaffection": 8116,
      "become": 8117,
      "adezer": 8118,
      "ĠWhence": 8119,
      "avan": 8120,
      "Ġtwilight": 8121,
      "resseth": 8122,
      "Ġconceive": 8123,
      "Ġconstra": 8124,
      "Ġlovest": 8125,
      "Ġhollow": 8126,
      "Ġovertook": 8127,
      "Ġbridle": 8128,
      "Ġbrutish": 8129,
      "Ġhasty": 8130,
      "ĠHele": 8131,
      "aleel": 8132,
      "ĠJeroham": 8133,
      "Ġseethe": 8134,
      "forward": 8135,
      "ĠZobah": 8136,
      "ĠZelophehad": 8137,
      "lived": 8138,
      "lips": 8139,
      "necked": 8140,
      "Ġriding": 8141,
      "swer": 8142,
      "ĠRome": 8143,
      "Ġmules": 8144,
      "whore": 8145,
      "Ġsett": 8146,
      "avement": 8147,
      "Ġensign": 8148,
      "Ġheardest": 8149,
      "icia": 8150,
      "Ġremission": 8151,
      "Ġevils": 8152,
      "Ġsmo": 8153,
      "Ġdissol": 8154,
      "Ġdiscomf": 8155,
      "Ġdispersed": 8156,
      "Ġdeliverer": 8157,
      "blemish": 8158,
      "cribe": 8159,
      "Ġcastle": 8160,
      "ĠKidron": 8161,
      "Ġfoursquare": 8162,
      "hisha": 8163,
      "Ġfounded": 8164,
      "overth": 8165,
      "Ġrained": 8166,
      "oths": 8167,
      "othy": 8168,
      "Ġkeeping": 8169,
      "Ġsling": 8170,
      "hiloh": 8171,
      "aiap": 8172,
      "Ġtriumph": 8173,
      "Ġrumour": 8174,
      "comb": 8175,
      "proclaim": 8176,
      "Ġblessings": 8177,
      "Ġparted": 8178,
      "Ġpartaker": 8179,
      "righted": 8180,
      "ossom": 8181,
      "retion": 8182,
      "Ġpresents": 8183,
      "Ġwarred": 8184,
      "Ġwarned": 8185,
      "Ġscales": 8186,
      "ĠReuel": 8187,
      "sures": 8188,
      "Ġbuildeth": 8189,
      "Ġflies": 8190,
      "Ġflaming": 8191,
      "Ġclosed": 8192,
      "shon": 8193,
      "ĠHowl": 8194,
      "Ġmoons": 8195,
      "Ġforgave": 8196,
      "ĠEphrath": 8197,
      "Ġholdeth": 8198,
      "ĠShelemiah": 8199,
      "perse": 8200,
      "raiment": 8201,
      "Ġrepay": 8202,
      "ĠAlpha": 8203,
      "Ġdevout": 8204,
      "Ġdevice": 8205,
      "Ġdevised": 8206,
      "hearted": 8207,
      "hearts": 8208,
      "hearkened": 8209,
      "Ġfinding": 8210,
      "Ġsaluted": 8211,
      "Ġprepar": 8212,
      "Ġesteemed": 8213,
      "passed": 8214,
      "goats": 8215,
      "Ġdefenced": 8216,
      "erethites": 8217,
      "built": 8218,
      "ĠAdullam": 8219,
      "Jeroboam": 8220,
      "Jericho": 8221,
      "break": 8222,
      "understand": 8223,
      "ĠNetop": 8224,
      "ĠAnswer": 8225,
      "Ġguest": 8226,
      "escape": 8227,
      "plain": 8228,
      "Ġperisheth": 8229,
      "weight": 8230,
      "Ġforeskin": 8231,
      "Ġobedience": 8232,
      "Ġtreasury": 8233,
      "Ġcorrection": 8234,
      "Ġgetteth": 8235,
      "fool": 8236,
      "arms": 8237,
      "Ġjourneys": 8238,
      "Ġexalteth": 8239,
      "ĠJehoiachin": 8240,
      "precious": 8241,
      "ĠVashti": 8242,
      "hemiah": 8243,
      "Ġacquaintance": 8244,
      "ĠZebedee": 8245,
      "Ġcruse": 8246,
      "Ġvillage": 8247,
      "Ġdeeper": 8248,
      "appeared": 8249,
      "knoweth": 8250,
      "Ġcondu": 8251,
      "Ġdamnation": 8252,
      "Ġceaseth": 8253,
      "ĠJobab": 8254,
      "Ġbaptize": 8255,
      "pleasure": 8256,
      "Ġwoof": 8257,
      "Ġlowest": 8258,
      "Ġprofitable": 8259,
      "excell": 8260,
      "eateth": 8261,
      "Ġbitterly": 8262,
      "Ġhoneycomb": 8263,
      "wherewith": 8264,
      "minist": 8265,
      "Ġdiligence": 8266,
      "Ġafterwards": 8267,
      "Ġregarded": 8268,
      "likewise": 8269,
      "Ġmarvel": 8270,
      "Ġastonied": 8271,
      "Ġlamented": 8272,
      "kedah": 8273,
      "lamation": 8274,
      "foundations": 8275,
      "ozrah": 8276,
      "ĠStretch": 8277,
      "Ġchastise": 8278,
      "bringeth": 8279,
      "souls": 8280,
      "ĠTimothy": 8281,
      "ĠZipp": 8282,
      "believe": 8283,
      "dwelling": 8284,
      "Ġmadest": 8285,
      "Ġmadness": 8286,
      "ĠChen": 8287,
      "Ġbelonged": 8288,
      "carc": 8289,
      "cession": 8290,
      "Ġexpired": 8291,
      "faithfulness": 8292,
      "murder": 8293,
      "Ġavenger": 8294,
      "ĠNazarite": 8295,
      "Ġimpossible": 8296,
      "golden": 8297,
      "Ġhypocrite": 8298,
      "poor": 8299,
      "skins": 8300,
      "Ġbenef": 8301,
      "Ġshortened": 8302,
      "blind": 8303,
      "blasphem": 8304,
      "Ġflying": 8305,
      "Ġproceeded": 8306,
      "Ġtemples": 8307,
      "Ġhireling": 8308,
      "ĠKadeshbarnea": 8309,
      "Ġancients": 8310,
      "uncleanness": 8311,
      "Ġtimbre": 8312,
      "Ġpronounced": 8313,
      "Ġbesiege": 8314,
      "grees": 8315,
      "suburbs": 8316,
      "substance": 8317,
      "Ġconsidereth": 8318,
      "desolation": 8319,
      "ĠGershonites": 8320,
      "Ġconspiracy": 8321,
      "province": 8322,
      "ĠElisabeth": 8323,
      "building": 8324,
      "Ġheirs": 8325,
      "Ġproverbs": 8326,
      "Ġaccounted": 8327,
      "Ġadvice": 8328,
      "wonder": 8329,
      "ĠHuram": 8330,
      "Ġspoon": 8331,
      "Ġenlarge": 8332,
      "Ġquench": 8333,
      "followed": 8334,
      "ĠCommand": 8335,
      "visit": 8336,
      "ĠZoar": 8337,
      "polluted": 8338,
      "Ġmorter": 8339,
      "utterly": 8340,
      "Ġstroke": 8341,
      "Ġambush": 8342,
      "Ġbestow": 8343,
      "ĠShebna": 8344,
      "Ġgroaning": 8345,
      "Ġaccusation": 8346,
      "Ġinfirmity": 8347,
      "fifty": 8348,
      "supplication": 8349,
      "supplications": 8350,
      "Ġsheaf": 8351,
      "forgotten": 8352,
      "Ġquarters": 8353,
      "preached": 8354,
      "instruments": 8355,
      "Hebron": 8356,
      "streets": 8357,
      "ĠBeside": 8358,
      "Ġexercise": 8359,
      "Ġpurchased": 8360,
      "coasts": 8361,
      "ĠBezaleel": 8362,
      "tribute": 8363,
      "violence": 8364,
      "withered": 8365,
      "Ġmillstone": 8366,
      "aterpill": 8367,
      "Ġcopy": 8368,
      "Ġdishonour": 8369,
      "ĠDibon": 8370,
      "Ġcarpenters": 8371,
      "Ġmaintain": 8372,
      "orpions": 8373,
      "Ġbehaved": 8374,
      "Ġturtled": 8375,
      "company": 8376,
      "Ġguiltless": 8377,
      "scattered": 8378,
      "ĠSuffer": 8379,
      "ĠRezin": 8380,
      "ĠShelomith": 8381,
      "Ġenchantments": 8382,
      "Manasseh": 8383,
      "nakedness": 8384,
      "ĠTophet": 8385,
      "candlestick": 8386,
      "Ġthrones": 8387,
      "Ġobeisance": 8388,
      "Ġpangs": 8389,
      "chisedec": 8390,
      "aiaphas": 8391,
      "110": 8392,
      "Arise": 8393,
      "Elea": 8394,
      "Kir": 8395,
      "Let": 8396,
      "Lebanon": 8397,
      "Mer": 8398,
      "Mic": 8399,
      "Of": 8400,
      "So": 8401,
      "Shiloh": 8402,
      "Ye": 8403,
      "athe": 8404,
      "bord": 8405,
      "biah": 8406,
      "bite": 8407,
      "birth": 8408,
      "boa": 8409,
      "care": 8410,
      "dam": 8411,
      "dust": 8412,
      "fin": 8413,
      "forn": 8414,
      "ga": 8415,
      "gies": 8416,
      "gments": 8417,
      "hour": 8418,
      "hun": 8419,
      "horn": 8420,
      "hate": 8421,
      "horses": 8422,
      "humble": 8423,
      "kid": 8424,
      "lit": 8425,
      "lau": 8426,
      "lots": 8427,
      "mity": 8428,
      "mbs": 8429,
      "miel": 8430,
      "nat": 8431,
      "oenai": 8432,
      "pi": 8433,
      "pat": 8434,
      "pra": 8435,
      "pot": 8436,
      "pron": 8437,
      "proud": 8438,
      "rode": 8439,
      "sore": 8440,
      "sho": 8441,
      "synago": 8442,
      "slew": 8443,
      "sitting": 8444,
      "suring": 8445,
      "taught": 8446,
      "virg": 8447,
      "vately": 8448,
      "wea": 8449,
      "wings": 8450,
      "zib": 8451,
      "thick": 8452,
      "Ġthin": 8453,
      "Ġthrow": 8454,
      "Ġsod": 8455,
      "Ġouch": 8456,
      "inning": 8457,
      "Ġwed": 8458,
      "Ġwot": 8459,
      "Ġwreathen": 8460,
      "rej": 8461,
      "requ": 8462,
      "reward": 8463,
      "rebu": 8464,
      "tofore": 8465,
      "Ġbent": 8466,
      "Ġbery": 8467,
      "Ġbaths": 8468,
      "Ġmistress": 8469,
      "isgah": 8470,
      "enqu": 8471,
      "Ġfea": 8472,
      "Ġfan": 8473,
      "Ġferv": 8474,
      "Ġfever": 8475,
      "Ġfret": 8476,
      "Ġcud": 8477,
      "Ġcaterpill": 8478,
      "ĠAkk": 8479,
      "Ġur": 8480,
      "Ġdance": 8481,
      "Ġdip": 8482,
      "Ġdough": 8483,
      "Ġdearth": 8484,
      "Ġdanger": 8485,
      "Ġdearly": 8486,
      "Ġtops": 8487,
      "Ġpom": 8488,
      "Ġpavement": 8489,
      "Ġnaught": 8490,
      "Ġnurse": 8491,
      "ĠIra": 8492,
      "Ġbell": 8493,
      "Ġham": 8494,
      "Ġlof": 8495,
      "Ġloss": 8496,
      "Ġshaking": 8497,
      "semble": 8498,
      "staves": 8499,
      "imag": 8500,
      "Ġhem": 8501,
      "idered": 8502,
      "Ġunknown": 8503,
      "ĠLe": 8504,
      "ĠLod": 8505,
      "Ġtied": 8506,
      "Ġtip": 8507,
      "Ġtrode": 8508,
      "leg": 8509,
      "ghill": 8510,
      "Ġsacks": 8511,
      "ĠTill": 8512,
      "ĠTeach": 8513,
      "ĠTarry": 8514,
      "ĠTubal": 8515,
      "ammite": 8516,
      "Ġevent": 8517,
      "ĠThree": 8518,
      "ĠThink": 8519,
      "rai": 8520,
      "rial": 8521,
      "riches": 8522,
      "ĠJahath": 8523,
      "ĠJazer": 8524,
      "entered": 8525,
      "ĠGird": 8526,
      "ĠGaal": 8527,
      "ĠGera": 8528,
      "ĠGeba": 8529,
      "erebiah": 8530,
      "ilful": 8531,
      "ilicia": 8532,
      "ĠSion": 8533,
      "ĠSeth": 8534,
      "Ġrelie": 8535,
      "ĠBichri": 8536,
      "rog": 8537,
      "establish": 8538,
      "Ġonyx": 8539,
      "ahem": 8540,
      "Ġthereunto": 8541,
      "ething": 8542,
      "Ġmanif": 8543,
      "Ġshove": 8544,
      "ĠMad": 8545,
      "ĠMig": 8546,
      "ĠMisha": 8547,
      "ĠMaker": 8548,
      "ĠMushi": 8549,
      "ĠMillo": 8550,
      "hither": 8551,
      "rench": 8552,
      "ĠIshi": 8553,
      "Ġsport": 8554,
      "alah": 8555,
      "opened": 8556,
      "oppress": 8557,
      "Ġstall": 8558,
      "sockets": 8559,
      "ably": 8560,
      "ĠWoman": 8561,
      "Ġdoer": 8562,
      "120": 8563,
      "allu": 8564,
      "142": 8565,
      "Ġvest": 8566,
      "Ġvie": 8567,
      "Ġvale": 8568,
      "Ġvip": 8569,
      "Ġvap": 8570,
      "Ġvintage": 8571,
      "phen": 8572,
      "ĠOF": 8573,
      "iece": 8574,
      "redeem": 8575,
      "ĠDor": 8576,
      "ĠDod": 8577,
      "ĠDrink": 8578,
      "ĠNor": 8579,
      "ĠNic": 8580,
      "lai": 8581,
      "ĠPass": 8582,
      "Ġhearest": 8583,
      "Ġabiding": 8584,
      "ĠChi": 8585,
      "ĠCaiaphas": 8586,
      "ĠCilicia": 8587,
      "Ġknops": 8588,
      "behind": 8589,
      "Ġsolit": 8590,
      "look": 8591,
      "Ġworms": 8592,
      "Ġcontain": 8593,
      "Ġliers": 8594,
      "olished": 8595,
      "akk": 8596,
      "istrates": 8597,
      "Ġhasteth": 8598,
      "pping": 8599,
      "umpt": 8600,
      "ummim": 8601,
      "shazzar": 8602,
      "athah": 8603,
      "ĠJerahmeel": 8604,
      "ĠJerimoth": 8605,
      "Ġlacked": 8606,
      "Ġsinful": 8607,
      "Ġdealeth": 8608,
      "ĠJether": 8609,
      "ĠJeush": 8610,
      "ĠZe": 8611,
      "ĠZil": 8612,
      "ĠZur": 8613,
      "ĠZop": 8614,
      "ĠZibeon": 8615,
      "ĠZabad": 8616,
      "ĠZalmunna": 8617,
      "Ġstock": 8618,
      "Ġstocks": 8619,
      "Ġbox": 8620,
      "Ġrud": 8621,
      "ĠRom": 8622,
      "ĠRock": 8623,
      "ĠRiblah": 8624,
      "ĠAbdon": 8625,
      "Ġmightily": 8626,
      "eastward": 8627,
      "iverse": 8628,
      "Ġwhereupon": 8629,
      "ĠAssh": 8630,
      "feed": 8631,
      "Ġlifteth": 8632,
      "Ġenlight": 8633,
      "Ġenmity": 8634,
      "Ġglass": 8635,
      "Ġrobes": 8636,
      "icus": 8637,
      "icate": 8638,
      "ician": 8639,
      "Ġbegu": 8640,
      "Ġlawy": 8641,
      "Ġdisput": 8642,
      "Ġdiseased": 8643,
      "Ġext": 8644,
      "Ġendured": 8645,
      "Ġraiseth": 8646,
      "Ġhighways": 8647,
      "Ġappeareth": 8648,
      "Ġdestroyeth": 8649,
      "Ġplants": 8650,
      "Ġgrain": 8651,
      "comore": 8652,
      "comfor": 8653,
      "Ġentrance": 8654,
      "Ġdeparteth": 8655,
      "Ġwarp": 8656,
      "Ġpoison": 8657,
      "Ġmothers": 8658,
      "Ġcontention": 8659,
      "Ġimm": 8660,
      "Ġhart": 8661,
      "Ġblossom": 8662,
      "Ġ50": 8663,
      "Ġ52": 8664,
      "ĠShealt": 8665,
      "Ġquiver": 8666,
      "Ġpleasures": 8667,
      "Ġwaf": 8668,
      "Ġsecrets": 8669,
      "ĠIttai": 8670,
      "ĠEliel": 8671,
      "Ġlonged": 8672,
      "Ġmeasuring": 8673,
      "Ġsubtil": 8674,
      "Ġfollowers": 8675,
      "iousness": 8676,
      "Ġcurses": 8677,
      "Ġprophetess": 8678,
      "Ġserveth": 8679,
      "Ġreported": 8680,
      "Ġwitch": 8681,
      "Ġuttereth": 8682,
      "Ġdeviseth": 8683,
      "Ġdecre": 8684,
      "Ġdivor": 8685,
      "consecr": 8686,
      "Ġspoiler": 8687,
      "Ġaffrighted": 8688,
      "Ġhonoured": 8689,
      "Ġsunrising": 8690,
      "Ġsuffice": 8691,
      "Ġesteem": 8692,
      "Ġhelper": 8693,
      "Ġjustify": 8694,
      "Ġheretofore": 8695,
      "Ġprovided": 8696,
      "Ġreproved": 8697,
      "Ġinstant": 8698,
      "tenth": 8699,
      "Ġsignet": 8700,
      "ĠJozabad": 8701,
      "ĠAdah": 8702,
      "ĠAdaiah": 8703,
      "ĠNehemiah": 8704,
      "doctrine": 8705,
      "plague": 8706,
      "ĠSeest": 8707,
      "Ġidle": 8708,
      "Ġpreacher": 8709,
      "Ġmindful": 8710,
      "Ġapiece": 8711,
      "ĠWhereupon": 8712,
      "Ġforefront": 8713,
      "Ġbondwoman": 8714,
      "Ġtreasuries": 8715,
      "ĠGileadite": 8716,
      "Ġcurseth": 8717,
      "Ġfleece": 8718,
      "Ġlabourers": 8719,
      "Ġbounds": 8720,
      "Ġvial": 8721,
      "chapit": 8722,
      "tortion": 8723,
      "Ġsuppose": 8724,
      "Ġsupposed": 8725,
      "Ġmaids": 8726,
      "prus": 8727,
      "singing": 8728,
      "appro": 8729,
      "appuah": 8730,
      "Ġrevive": 8731,
      "Ġreveal": 8732,
      "Ġinstruct": 8733,
      "glah": 8734,
      "glad": 8735,
      "remnant": 8736,
      "Ġprosperous": 8737,
      "clothes": 8738,
      "Ġdeceitfully": 8739,
      "Ġviolently": 8740,
      "Ġsnared": 8741,
      "Ġgrassho": 8742,
      "Ġinterpreted": 8743,
      "except": 8744,
      "Ġkids": 8745,
      "Ġherdmen": 8746,
      "Ġpersecut": 8747,
      "Ġpersecution": 8748,
      "ĠAshkelon": 8749,
      "Ġlearning": 8750,
      "ĠBelshazzar": 8751,
      "Ġsatisfy": 8752,
      "smith": 8753,
      "Ġawoke": 8754,
      "counted": 8755,
      "captain": 8756,
      "captive": 8757,
      "lament": 8758,
      "Ġintend": 8759,
      "foundation": 8760,
      "Ġcouch": 8761,
      "Ġproclamation": 8762,
      "ĠBethlehemjudah": 8763,
      "ĠHadadezer": 8764,
      "Ġstirreth": 8765,
      "Ġchastened": 8766,
      "Ġemptied": 8767,
      "Ġtreadeth": 8768,
      "temp": 8769,
      "prayed": 8770,
      "Ġmanifested": 8771,
      "mercies": 8772,
      "seventh": 8773,
      "Ġrebellion": 8774,
      "Ġstraitened": 8775,
      "Ġvirginity": 8776,
      "grass": 8777,
      "ĠJabin": 8778,
      "Ġcovet": 8779,
      "Ġimputed": 8780,
      "ĠEthiopian": 8781,
      "transgressed": 8782,
      "Ġhungred": 8783,
      "better": 8784,
      "Ġsharpen": 8785,
      "Ġpreserveth": 8786,
      "ĠMattithiah": 8787,
      "Ġkindreds": 8788,
      "Ġpersuade": 8789,
      "Samuel": 8790,
      "Ġeagles": 8791,
      "ĠAraunah": 8792,
      "Ġliberal": 8793,
      "present": 8794,
      "person": 8795,
      "ĠKenites": 8796,
      "ĠHereby": 8797,
      "chaniah": 8798,
      "Ġnature": 8799,
      "Ġrecompensed": 8800,
      "Ġexhortation": 8801,
      "mourning": 8802,
      "ĠNeriah": 8803,
      "Ġtreacherous": 8804,
      "ĠNahshon": 8805,
      "receiveth": 8806,
      "Ġbaldness": 8807,
      "continually": 8808,
      "pillars": 8809,
      "troubled": 8810,
      "whether": 8811,
      "ĠPeleth": 8812,
      "Ġreconciliation": 8813,
      "ĠHivite": 8814,
      "ĠRabbi": 8815,
      "chariot": 8816,
      "corner": 8817,
      "ĠAmmihud": 8818,
      "Ġgiant": 8819,
      "ĠBeriah": 8820,
      "Ġriddle": 8821,
      "prepared": 8822,
      "scribe": 8823,
      "Ġhewers": 8824,
      "savour": 8825,
      "Ġbruise": 8826,
      "Ġbruised": 8827,
      "Ġcensers": 8828,
      "Ġwithdraw": 8829,
      "Ġpertaining": 8830,
      "ĠArabia": 8831,
      "ĠShobal": 8832,
      "Ġsheaves": 8833,
      "Ġrushing": 8834,
      "Ġdreadful": 8835,
      "churches": 8836,
      "Ġnecessary": 8837,
      "nevertheless": 8838,
      "Ġexample": 8839,
      "despised": 8840,
      "drei": 8841,
      "Ġsurnamed": 8842,
      "trumpet": 8843,
      "Nebuchadrezzar": 8844,
      "Ġstumblingblock": 8845,
      "ĠPedaiah": 8846,
      "ĠShunammite": 8847,
      "worshipped": 8848,
      "Esau": 8849,
      "palace": 8850,
      "Ġwagons": 8851,
      "rebell": 8852,
      "Ġhaughty": 8853,
      "astonishment": 8854,
      "ĠGerar": 8855,
      "Ġkneeled": 8856,
      "Ġdistribut": 8857,
      "Ġdiminish": 8858,
      "favour": 8859,
      "Ġbabes": 8860,
      "Ġmixed": 8861,
      "Ġbewail": 8862,
      "Ġrevelation": 8863,
      "ĠPenuel": 8864,
      "Ġbetrothed": 8865,
      "Daniel": 8866,
      "Ġsapphire": 8867,
      "ĠDinah": 8868,
      "ĠCorinth": 8869,
      "remembrance": 8870,
      "Ġcheweth": 8871,
      "recompense": 8872,
      "Almighty": 8873,
      "court": 8874,
      "learned": 8875,
      "ĠAphek": 8876,
      "Ġwhelps": 8877,
      "Ġvomit": 8878,
      "Ġcorrect": 8879,
      "Ġambassadors": 8880,
      "Holy": 8881,
      "villages": 8882,
      "Ġpastors": 8883,
      "Ġpowder": 8884,
      "ĠSephar": 8885,
      "ĠSanctify": 8886,
      "rologers": 8887,
      "ĠChemosh": 8888,
      "Ġdiscomfited": 8889,
      "borders": 8890,
      "pronoun": 8891,
      "Ġouches": 8892,
      "Ġberyl": 8893,
      "ĠAkkub": 8894,
      "Ġlofty": 8895,
      "Ġmanifold": 8896,
      "ĠAsshur": 8897,
      "ĠShealtiel": 8898,
      "An": 8899,
      "Blessed": 8900,
      "Ch": 8901,
      "Damascus": 8902,
      "Edom": 8903,
      "Gib": 8904,
      "Gilead": 8905,
      "Har": 8906,
      "Hez": 8907,
      "Hittite": 8908,
      "Jew": 8909,
      "John": 8910,
      "Ma": 8911,
      "Me": 8912,
      "Per": 8913,
      "Se": 8914,
      "Syria": 8915,
      "Surely": 8916,
      "Tim": 8917,
      "US": 8918,
      "ald": 8919,
      "awn": 8920,
      "aws": 8921,
      "bor": 8922,
      "bon": 8923,
      "bea": 8924,
      "bowed": 8925,
      "creat": 8926,
      "cease": 8927,
      "cleave": 8928,
      "da": 8929,
      "dry": 8930,
      "diel": 8931,
      "daily": 8932,
      "draw": 8933,
      "eves": 8934,
      "fine": 8935,
      "furn": 8936,
      "feared": 8937,
      "giver": 8938,
      "here": 8939,
      "hement": 8940,
      "iakim": 8941,
      "join": 8942,
      "kn": 8943,
      "lations": 8944,
      "morrow": 8945,
      "moved": 8946,
      "ny": 8947,
      "nets": 8948,
      "nathan": 8949,
      "nament": 8950,
      "oves": 8951,
      "occ": 8952,
      "prom": 8953,
      "rat": 8954,
      "rarch": 8955,
      "sound": 8956,
      "ssed": 8957,
      "sleep": 8958,
      "tent": 8959,
      "ties": 8960,
      "vished": 8961,
      "vaim": 8962,
      "wid": 8963,
      "wro": 8964,
      "zor": 8965,
      "zan": 8966,
      "zeel": 8967,
      "thence": 8968,
      "thniel": 8969,
      "Ġthro": 8970,
      "Ġthrew": 8971,
      "Ġalt": 8972,
      "Ġaileth": 8973,
      "Ġsy": 8974,
      "Ġsower": 8975,
      "Ġhed": 8976,
      "Ġhum": 8977,
      "Ġhedge": 8978,
      "inar": 8979,
      "inations": 8980,
      "inno": 8981,
      "Ġwelf": 8982,
      "reb": 8983,
      "rev": 8984,
      "reach": 8985,
      "reap": 8986,
      "town": 8987,
      "Ġbles": 8988,
      "Ġbount": 8989,
      "Ġbath": 8990,
      "Ġmasons": 8991,
      "Ġfou": 8992,
      "Ġfleeth": 8993,
      "atia": 8994,
      "edst": 8995,
      "Ġcow": 8996,
      "Ġcrow": 8997,
      "Ġcert": 8998,
      "Ġcircumcise": 8999,
      "ĠAri": 9000,
      "ĠApp": 9001,
      "hal": 9002,
      "Ġuseth": 9003,
      "Ġdear": 9004,
      "Ġdrown": 9005,
      "Ġdressed": 9006,
      "Ġdross": 9007,
      "Ġdurst": 9008,
      "Ġduty": 9009,
      "Ġdawn": 9010,
      "Ġink": 9011,
      "Ġtossed": 9012,
      "Ġpan": 9013,
      "Ġpine": 9014,
      "ank": 9015,
      "Ġbeckon": 9016,
      "Ġwiz": 9017,
      "Ġwipe": 9018,
      "Ġhall": 9019,
      "Ġlent": 9020,
      "Ġlaughter": 9021,
      "Ġlump": 9022,
      "Ġshaketh": 9023,
      "Ġwhiles": 9024,
      "sely": 9025,
      "staff": 9026,
      "Ġyonder": 9027,
      "vex": 9028,
      "ĠLove": 9029,
      "ĠLuz": 9030,
      "Ġnoond": 9031,
      "Ġta": 9032,
      "Ġtares": 9033,
      "Ġtrench": 9034,
      "Ġforced": 9035,
      "asper": 9036,
      "lect": 9037,
      "Ġsail": 9038,
      "aroth": 9039,
      "ĠTou": 9040,
      "ĠTah": 9041,
      "ĠTrust": 9042,
      "odic": 9043,
      "irath": 9044,
      "irts": 9045,
      "amm": 9046,
      "amin": 9047,
      "amal": 9048,
      "amia": 9049,
      "Ġissued": 9050,
      "elzebub": 9051,
      "Ġwithstand": 9052,
      "rawn": 9053,
      "ragments": 9054,
      "rich": 9055,
      "ripe": 9056,
      "ĠJa": 9057,
      "ĠJust": 9058,
      "ĠJaaz": 9059,
      "ĠJavan": 9060,
      "ĠGab": 9061,
      "ĠGener": 9062,
      "ĠGittite": 9063,
      "etest": 9064,
      "eteen": 9065,
      "etrarch": 9066,
      "urance": 9067,
      "Ġrealm": 9068,
      "Ġrenew": 9069,
      "ĠBozrah": 9070,
      "rock": 9071,
      "estin": 9072,
      "adak": 9073,
      "Ġshone": 9074,
      "Ġsheath": 9075,
      "Ġshineth": 9076,
      "Ġgot": 9077,
      "ĠHen": 9078,
      "ĠHab": 9079,
      "holiness": 9080,
      "ĠMall": 9081,
      "ĠMamre": 9082,
      "Ġoutgoings": 9083,
      "Ġspran": 9084,
      "Ġspend": 9085,
      "always": 9086,
      "opot": 9087,
      "Ġstink": 9088,
      "ourselves": 9089,
      "Ġbutter": 9090,
      "Ġbutler": 9091,
      "ĠElon": 9092,
      "ĠEthan": 9093,
      "ĠEdrei": 9094,
      "ĠWas": 9095,
      "ĠWould": 9096,
      "ĠFlee": 9097,
      "ĠFeed": 9098,
      "ĠFelix": 9099,
      "Ġhearth": 9100,
      "Ġweigh": 9101,
      "126": 9102,
      "128": 9103,
      "Ġalthough": 9104,
      "ruck": 9105,
      "Ġvol": 9106,
      "Ġhousetop": 9107,
      "Ġhousetops": 9108,
      "ĠOreb": 9109,
      "150": 9110,
      "ĠDost": 9111,
      "ĠDuke": 9112,
      "ĠDishon": 9113,
      "ĠNoph": 9114,
      "laleel": 9115,
      "ĠPath": 9116,
      "ĠPadanaram": 9117,
      "illa": 9118,
      "Ġability": 9119,
      "ĠCry": 9120,
      "ĠCush": 9121,
      "Ġjasper": 9122,
      "reshah": 9123,
      "Ġliars": 9124,
      "Ġornament": 9125,
      "Ġoverturn": 9126,
      "olk": 9127,
      "olis": 9128,
      "Ġprotest": 9129,
      "Ġsunder": 9130,
      "lead": 9131,
      "Ġdecked": 9132,
      "Ġdegrees": 9133,
      "Ġplaister": 9134,
      "inder": 9135,
      "indeed": 9136,
      "quar": 9137,
      "former": 9138,
      "uliar": 9139,
      "Ġswim": 9140,
      "ĠJecon": 9141,
      "ĠZar": 9142,
      "ĠZorah": 9143,
      "ĠZephaniah": 9144,
      "Ġstony": 9145,
      "neck": 9146,
      "Ġrider": 9147,
      "sware": 9148,
      "ĠRes": 9149,
      "Ġmule": 9150,
      "white": 9151,
      "Ġsettle": 9152,
      "efiled": 9153,
      "Ġfoes": 9154,
      "Ġfoxes": 9155,
      "Ġglitter": 9156,
      "Ġbroidered": 9157,
      "Ġroe": 9158,
      "Ġrotten": 9159,
      "Ġeyelids": 9160,
      "ical": 9161,
      "Ġanswereth": 9162,
      "herself": 9163,
      "Ġperdition": 9164,
      "Ġdisgu": 9165,
      "Ġexceed": 9166,
      "ĠAmos": 9167,
      "agger": 9168,
      "spear": 9169,
      "cribed": 9170,
      "Ġjudgest": 9171,
      "Ġprayeth": 9172,
      "Ġdestitute": 9173,
      "Ġrighteously": 9174,
      "Ġraw": 9175,
      "Ġrazor": 9176,
      "othsay": 9177,
      "Ġapple": 9178,
      "Ġslaying": 9179,
      "Ġmidwives": 9180,
      "thereto": 9181,
      "thereon": 9182,
      "Ġentice": 9183,
      "Ġentreated": 9184,
      "iator": 9185,
      "Ġdiscretion": 9186,
      "Ġsilent": 9187,
      "Ġfaithfully": 9188,
      "Ġlightly": 9189,
      "eculiar": 9190,
      "Ġincorrupt": 9191,
      "Ġwarning": 9192,
      "habitation": 9193,
      "Ġscab": 9194,
      "Ġscorpions": 9195,
      "Ġtemper": 9196,
      "Ġbelieving": 9197,
      "Ġharlots": 9198,
      "ĠSheth": 9199,
      "ĠSherebiah": 9200,
      "ĠRehum": 9201,
      "ĠUnder": 9202,
      "ĠUrim": 9203,
      "ĠGood": 9204,
      "hathites": 9205,
      "Ġadorn": 9206,
      "ĠElioenai": 9207,
      "Ġflight": 9208,
      "Ġseekest": 9209,
      "Ġclim": 9210,
      "Ġcovert": 9211,
      "Ġmeaneth": 9212,
      "ĠArch": 9213,
      "shut": 9214,
      "Ġforgat": 9215,
      "office": 9216,
      "ĠShechaniah": 9217,
      "Ġcertainty": 9218,
      "Ġreplen": 9219,
[...]
